memory_initialization_radix=16;
memory_initialization_vector=
F4,
D3,
34,
3C,
3D,
E7,
26,
6B,
B8,
78,
5D,
D3,
88,
7B,
CB,
3E,
17,
08,
A8,
C0,
49,
C0,
A5,
7E,
A0,
C8,
82,
73,
27,
55,
EA,
5E,
1D,
AE,
D5,
60,
95,
ED,
5D,
DE,
C9,
79,
A7,
28,
30,
F9,
D2,
24,
C1,
AE,
30,
50,
B2,
D6,
CA,
77,
6E,
17,
A9,
04,
19,
C8,
0E,
FC,
25,
D1,
F0,
F2,
66,
52,
BF,
13,
D5,
C6,
76,
E7,
27,
EB,
05,
A8,
99,
AB,
9E,
BF,
D3,
7D,
56,
4C,
39,
6C,
71,
1A,
76,
C7,
93,
F0,
3C,
26,
16,
13,
65,
5C,
36,
48,
9F,
E1,
F7,
96,
FE,
A8,
72,
B2,
74,
A9,
1C,
00,
93,
E0,
79,
E7,
CA,
A0,
09,
94,
A5,
85,
A3,
21,
4C,
8D,
3B,
3C,
37,
4E,
FA,
94,
8D,
FC,
9D,
47,
13,
AB,
8C,
BF,
CB,
3B,
A0,
5F,
B0,
02,
E0,
56,
68,
FC,
C9,
57,
58,
FE,
00,
A7,
D2,
8A,
A1,
F3,
C5,
30,
C3,
4D,
13,
EF,
B0,
01,
DB,
FF,
52,
88,
4E,
20,
3A,
E5,
31,
76,
43,
B8,
B7,
82,
71,
41,
37,
77,
37,
F0,
B3,
12,
F1,
05,
1D,
9C,
0F,
1C,
BD,
75,
54,
BD,
4E,
14,
4A,
E1,
5F,
92,
F9,
B4,
BC,
35,
61,
6A,
3B,
05,
AC,
31,
57,
B4,
3A,
32,
A1,
45,
5D,
A4,
E0,
63,
78,
0E,
02,
04,
01,
10,
26,
81,
9C,
1C,
1C,
62,
E6,
28,
E3,
34,
E9,
3C,
53,
A9,
CC,
9C,
FB,
DF,
7A,
60,
2D,
61,
20,
A9,
99,
87,
AA,
2F,
CD,
34,
99,
D7,
1D,
78,
42,
98,
09,
46,
0E,
C6,
81,
3C,
6B,
A6,
E9,
A2,
AF,
5A,
99,
1C,
2A,
BE,
4F,
E4,
A3,
DA,
E7,
BE,
CF,
0E,
94,
29,
0F,
59,
40,
CE,
BD,
F2,
0F,
DA,
00,
15,
6B,
7D,
4C,
D9,
91,
77,
03,
AB,
BF,
E8,
1B,
85,
44,
55,
72,
E2,
E9,
CE,
DE,
6C,
D3,
A5,
2D,
C9,
13,
10,
93,
4A,
B9,
6C,
DF,
D1,
C6,
3D,
E5,
EF,
24,
DB,
1F,
40,
C2,
FE,
83,
2A,
68,
BF,
F6,
BF,
66,
4E,
85,
C7,
8F,
2C,
BE,
BD,
FB,
E0,
4D,
34,
FA,
68,
2C,
4A,
73,
E0,
72,
38,
07,
BE,
2D,
B4,
98,
1B,
E8,
75,
2B,
A5,
D4,
6F,
39,
65,
D5,
25,
C8,
DB,
C0,
D8,
B2,
54,
AD,
0C,
61,
97,
31,
DD,
77,
E4,
6D,
6B,
B6,
7D,
23,
C7,
31,
0D,
2E,
B8,
88,
15,
16,
4C,
A1,
92,
27,
A6,
E6,
BF,
E9,
1D,
34,
87,
B8,
68,
98,
37,
D3,
55,
29,
21,
A0,
7E,
FA,
DA,
67,
F2,
39,
C6,
A5,
A7,
71,
DF,
B0,
CC,
51,
9E,
F2,
AF,
23,
C1,
C9,
DC,
B3,
36,
0E,
DC,
D7,
08,
44,
1E,
6E,
AC,
8D,
F5,
99,
0A,
51,
D8,
71,
45,
3B,
37,
EE,
6D,
AE,
43,
74,
24,
B7,
F7,
5F,
DB,
C0,
E7,
4D,
29,
29,
45,
2A,
C2,
CD,
BC,
B5,
FE,
41,
48,
60,
03,
EA,
FE,
39,
42,
3A,
AC,
7D,
55,
35,
4B,
ED,
63,
06,
F2,
F0,
8B,
60,
E3,
C6,
BD,
98,
17,
3E,
2E,
F7,
93,
E8,
EC,
A3,
39,
DA,
65,
0D,
78,
1A,
57,
25,
BE,
A4,
AA,
D3,
A5,
A8,
F6,
B4,
25,
76,
9F,
90,
4E,
1A,
08,
00,
F8,
7F,
3C,
FF,
43,
A0,
B8,
16,
01,
CE,
90,
6E,
09,
C0,
51,
27,
09,
9B,
7F,
AC,
BB,
12,
8B,
DB,
FA,
AB,
F0,
A6,
BB,
4E,
5E,
FA,
3F,
BB,
8D,
51,
91,
B5,
7D,
44,
D8,
D0,
82,
85,
4F,
BB,
25,
0B,
34,
F3,
B7,
5B,
11,
2A,
EA,
04,
34,
E3,
C9,
46,
E0,
72,
AF,
91,
EA,
A5,
46,
EE,
47,
CB,
08,
E2,
09,
63,
32,
97,
CB,
61,
5A,
68,
24,
88,
4D,
39,
DA,
95,
97,
53,
26,
E0,
28,
AB,
E4,
C1,
B4,
7C,
E3,
5A,
A6,
5A,
15,
9D,
82,
44,
32,
52,
97,
BA,
85,
CC,
45,
F4,
DA,
B8,
E7,
E8,
B4,
9A,
13,
90,
DB,
3D,
8D,
91,
DA,
F6,
8D,
16,
C7,
24,
23,
15,
7E,
CD,
8A,
78,
75,
88,
98,
F7,
8D,
E3,
5B,
04,
0A,
69,
E3,
9F,
6D,
21,
82,
9F,
96,
DF,
D9,
56,
9E,
B9,
7D,
FD,
49,
74,
91,
92,
8C,
EC,
0B,
7F,
38,
4F,
41,
99,
24,
F6,
C2,
6F,
94,
E9,
E8,
E6,
2A,
7C,
EF,
B4,
98,
4C,
52,
B2,
74,
B3,
FA,
30,
A2,
79,
F6,
D9,
B9,
F2,
C2,
58,
2F,
CF,
D9,
DE,
44,
F6,
DF,
45,
92,
90,
A4,
92,
BF,
2B,
FE,
CD,
95,
D5,
1B,
85,
DF,
B5,
BC,
3D,
7A,
6F,
C2,
24,
43,
E2,
C1,
6E,
9E,
4A,
23,
21,
74,
5D,
DA,
F5,
9F,
1B,
3A,
29,
61,
7F,
EF,
28,
83,
AC,
9A,
C6,
A9,
57,
48,
07,
43,
AE,
62,
75,
73,
7D,
C8,
A1,
BF,
F9,
9B,
D8,
2F,
D4,
AD,
26,
08,
0C,
64,
FF,
86,
0B,
FE,
21,
96,
77,
21,
58,
AC,
1C,
6E,
E4,
2F,
B1,
05,
93,
4C,
92,
16,
04,
B6,
0C,
40,
17,
63,
36,
D7,
16,
DA,
16,
09,
CB,
56,
EC,
C6,
47,
3B,
DB,
B6,
2E,
19,
3F,
87,
87,
B2,
B1,
02,
90,
D1,
A8,
62,
EF,
58,
18,
41,
CA,
96,
C2,
21,
26,
36,
18,
4B,
27,
75,
FB,
63,
14,
EA,
A3,
8C,
38,
A3,
E0,
66,
9A,
EF,
A6,
95,
07,
98,
5C,
9B,
92,
C0,
FD,
87,
AF,
C7,
38,
20,
0E,
B6,
59,
A5,
84,
74,
9A,
8A,
CB,
36,
7F,
C6,
3B,
58,
6B,
0F,
B2,
DF,
46,
2B,
A0,
F8,
21,
B9,
2B,
9F,
0A,
D9,
25,
0E,
CF,
95,
2C,
7D,
A5,
AC,
35,
A5,
94,
61,
53,
18,
31,
F5,
48,
B2,
0D,
F3,
53,
14,
10,
EA,
D7,
22,
20,
CC,
68,
26,
34,
2B,
8E,
5C,
41,
16,
92,
41,
F0,
DC,
3C,
7E,
8A,
72,
DD,
59,
85,
0C,
86,
6D,
33,
E8,
0D,
53,
F7,
90,
57,
48,
94,
54,
63,
90,
81,
0F,
1D,
8E,
1C,
C5,
70,
C7,
9E,
22,
23,
8E,
D9,
6B,
7B,
66,
05,
F8,
9B,
B0,
11,
EA,
A7,
EE,
48,
33,
DF,
B0,
47,
1D,
21,
D1,
CF,
72,
AD,
8C,
84,
A3,
84,
45,
F6,
AE,
BE,
79,
94,
0B,
EB,
CA,
E1,
CC,
FC,
03,
29,
03,
79,
FA,
BF,
63,
5C,
79,
ED,
D7,
90,
31,
42,
F4,
74,
9C,
78,
CB,
08,
B0,
FA,
B4,
E2,
A5,
7D,
4E,
A6,
22,
2F,
E4,
29,
25,
08,
DE,
D4,
EA,
DA,
8B,
FE,
B3,
47,
6D,
F9,
A6,
A8,
76,
57,
76,
9F,
33,
45,
88,
0B,
C6,
6F,
33,
95,
CE,
EB,
50,
73,
D9,
FD,
2C,
EB,
E9,
29,
11,
CA,
7C,
0A,
3B,
24,
1B,
67,
57,
D2,
91,
E2,
EA,
3E,
28,
4B,
4E,
51,
81,
7C,
17,
5A,
FD,
6E,
3B,
C5,
62,
42,
2F,
76,
EE,
A6,
12,
56,
A1,
4A,
43,
A6,
1A,
38,
49,
C0,
38,
A3,
B3,
E8,
5E,
BB,
96,
08,
E9,
00,
90,
FC,
FF,
65,
B1,
E6,
9F,
BB,
E6,
DC,
D7,
7D,
57,
F6,
14,
E8,
A4,
89,
86,
FC,
1B,
64,
D4,
C7,
7A,
D1,
28,
2A,
22,
58,
A1,
6D,
7F,
EB,
A3,
07,
3B,
6B,
24,
E7,
FE,
74,
6A,
A6,
87,
B3,
82,
E9,
7B,
F4,
EE,
95,
12,
C3,
D5,
BB,
C1,
57,
78,
02,
65,
52,
2F,
53,
E7,
CA,
D5,
CA,
D8,
25,
64,
18,
49,
63,
F0,
F4,
D4,
19,
69,
2C,
54,
4B,
4B,
1B,
2E,
33,
88,
D1,
8E,
68,
F8,
17,
FB,
47,
0E,
8A,
A8,
F3,
06,
71,
6D,
45,
58,
11,
5D,
73,
B6,
56,
C8,
8A,
FF,
23,
96,
BC,
EE,
AD,
E3,
93,
2E,
FD,
47,
6F,
C5,
E3,
BD,
0B,
11,
70,
92,
78,
94,
94,
C0,
61,
21,
81,
30,
AE,
7E,
1C,
97,
FD,
0C,
D3,
4C,
5D,
7B,
0D,
F3,
52,
EF,
34,
30,
3C,
D7,
5C,
04,
DB,
C9,
63,
D4,
8D,
06,
D8,
18,
C5,
F8,
34,
A6,
4F,
DF,
71,
75,
C3,
F0,
27,
A5,
33,
25,
DF,
22,
74,
68,
66,
32,
49,
B1,
CE,
00,
FF,
41,
72,
2E,
8C,
B2,
18,
11,
A5,
AD,
4D,
A4,
8C,
4E,
11,
31,
7C,
D8,
04,
08,
E9,
A0,
1C,
0C,
24,
A7,
6E,
76,
2C,
90,
9C,
E6,
DA,
10,
99,
C6,
A7,
BA,
CD,
C0,
E1,
BA,
D3,
36,
43,
53,
35,
6D,
C6,
8C,
C4,
E6,
77,
25,
63,
58,
10,
D3,
A9,
79,
38,
CA,
4D,
DF,
2F,
F9,
15,
22,
AD,
E6,
8D,
ED,
A8,
9E,
F8,
90,
E8,
47,
66,
BA,
BB,
13,
08,
E2,
D9,
4E,
E5,
B7,
1E,
FB,
04,
29,
50,
5E,
BF,
7A,
D4,
90,
61,
85,
39,
6E,
87,
62,
AC,
F7,
22,
04,
A3,
C2,
F1,
45,
08,
81,
6D,
33,
B5,
2A,
4C,
57,
97,
20,
52,
74,
71,
AF,
0F,
B1,
44,
12,
45,
2A,
D6,
79,
22,
E7,
75,
37,
83,
E0,
7D,
EE,
9A,
08,
4A,
9F,
9A,
93,
A8,
D3,
E5,
8C,
97,
9C,
D1,
59,
67,
2D,
38,
85,
C8,
DF,
C3,
F3,
FD,
A2,
39,
EC,
D3,
99,
7B,
13,
F8,
4F,
4C,
9F,
75,
9B,
D7,
A2,
44,
4C,
71,
3C,
0E,
71,
3A,
9A,
38,
3A,
A1,
D2,
C9,
7E,
15,
34,
CB,
27,
72,
35,
1F,
CF,
F1,
DE,
2E,
FA,
0C,
05,
FF,
AC,
62,
63,
63,
73,
BE,
EA,
F5,
59,
6F,
8C,
84,
D3,
B3,
93,
92,
DC,
63,
26,
87,
6F,
06,
06,
35,
6F,
8D,
01,
6B,
6A,
33,
32,
29,
AF,
35,
9F,
F6,
AF,
97,
49,
67,
30,
22,
6C,
04,
60,
BB,
38,
D6,
D6,
B8,
0C,
90,
EC,
D1,
78,
75,
7D,
30,
11,
5E,
73,
B5,
D6,
D2,
85,
CD,
2C,
CE,
6F,
35,
9A,
36,
C0,
D9,
3E,
24,
65,
49,
A8,
9B,
73,
78,
82,
3B,
42,
73,
39,
3A,
7F,
37,
A0,
93,
E5,
9E,
00,
11,
7F,
23,
DD,
DD,
41,
6E,
9D,
23,
E8,
36,
82,
D4,
45,
53,
B6,
5F,
59,
7C,
D7,
E7,
05,
F4,
EE,
4E,
40,
F5,
34,
AF,
D3,
78,
74,
B5,
BF,
69,
35,
32,
B3,
43,
5F,
58,
D3,
4A,
14,
F3,
C7,
06,
D7,
23,
B7,
E3,
8F,
73,
BB,
0B,
8B,
A6,
E2,
BF,
4D,
10,
8A,
7D,
8C,
2C,
6D,
0F,
1F,
FB,
00,
A9,
FD,
0E,
BB,
AD,
27,
F5,
5C,
8B,
55,
73,
6C,
20,
2B,
3B,
21,
DD,
12,
E7,
CF,
70,
BE,
58,
0D,
39,
DF,
B4,
C6,
01,
6F,
EC,
EA,
58,
0B,
69,
75,
EE,
91,
26,
5A,
7C,
48,
ED,
93,
06,
6B,
48,
51,
D3,
6F,
F7,
30,
CC,
D6,
96,
7C,
70,
B4,
48,
39,
25,
BC,
0C,
30,
B7,
4A,
64,
88,
F5,
7E,
2E,
66,
8B,
2E,
C9,
27,
0D,
65,
A9,
37,
E7,
D8,
93,
57,
DC,
25,
3B,
DD,
48,
A9,
7E,
F4,
B9,
EA,
8D,
17,
37,
CE,
D9,
3A,
1F,
BF,
52,
70,
2F,
C6,
B1,
60,
D9,
31,
D5,
4D,
4E,
4D,
CF,
48,
3D,
EB,
EB,
4A,
2B,
5E,
14,
F3,
B3,
64,
78,
EB,
DC,
12,
54,
38,
69,
35,
86,
B7,
76,
55,
0B,
22,
C7,
8C,
6E,
E0,
D8,
C3,
3B,
D2,
8A,
FE,
BC,
AA,
4C,
2D,
92,
C0,
42,
9E,
90,
B5,
47,
E6,
40,
E1,
6A,
84,
3A,
71,
10,
93,
9E,
73,
68,
D0,
0B,
23,
FA,
50,
9D,
E5,
ED,
FD,
19,
31,
B1,
2C,
0D,
C4,
BB,
8C,
C2,
67,
20,
BE,
B8,
EB,
8F,
FE,
7C,
C2,
3F,
2E,
F5,
82,
F4,
59,
0B,
D7,
35,
C2,
28,
DF,
47,
B7,
A7,
C1,
D1,
12,
B6,
F4,
3B,
8F,
39,
03,
B4,
65,
74,
EA,
2B,
07,
E2,
14,
E5,
87,
FC,
5C,
14,
F1,
AD,
96,
EC,
8E,
AA,
19,
02,
9B,
63,
B0,
71,
02,
29,
EF,
77,
E7,
FD,
92,
36,
4B,
71,
EF,
D6,
24,
8E,
64,
7E,
62,
94,
CF,
0D,
D6,
D3,
E5,
18,
13,
41,
39,
A4,
9A,
EA,
05,
F6,
20,
21,
33,
14,
22,
DE,
E3,
CA,
24,
D6,
D1,
46,
89,
0D,
4F,
36,
EB,
99,
8B,
AA,
61,
AA,
E7,
0A,
0C,
FC,
B0,
17,
6F,
CA,
7B,
06,
00,
6D,
9A,
06,
CE,
71,
0C,
CD,
A0,
EF,
2D,
A8,
8C,
CA,
C2,
E7,
F9,
6C,
8C,
4E,
66,
51,
5F,
9A,
63,
98,
5A,
CF,
4C,
9C,
21,
A9,
0D,
E3,
40,
8F,
81,
A2,
65,
E1,
05,
04,
CE,
49,
7E,
AF,
CE,
01,
44,
8F,
6A,
47,
C2,
79,
D9,
3C,
59,
5B,
37,
10,
3B,
D8,
E3,
12,
DA,
C5,
6A,
8A,
B0,
C3,
6B,
06,
A2,
68,
D8,
89,
25,
24,
98,
86,
3B,
0B,
6D,
87,
32,
D8,
3E,
4F,
FA,
4A,
EE,
14,
46,
3A,
D5,
72,
6D,
18,
7D,
0F,
FE,
A5,
0C,
72,
A2,
BC,
5F,
77,
08,
A7,
69,
0D,
89,
B2,
5E,
CB,
EA,
37,
7C,
9C,
E6,
8F,
93,
31,
9D,
5E,
30,
F7,
1F,
D0,
8B,
D8,
9A,
56,
02,
3C,
0D,
F0,
A4,
96,
F3,
15,
DD,
20,
BE,
7E,
92,
D3,
15,
E1,
2F,
5E,
18,
CB,
60,
3B,
E3,
4A,
CD,
97,
26,
8D,
25,
22,
89,
E2,
1F,
1D,
B2,
8F,
D4,
BA,
2A,
07,
97,
C2,
08,
DF,
AF,
39,
74,
9C,
DD,
08,
E4,
31,
97,
52,
41,
9C,
68,
44,
E5,
F1,
E7,
51,
6B,
CF,
8A,
5C,
5B,
D1,
58,
51,
77,
5E,
43,
0D,
9D,
BC,
D8,
B1,
2A,
66,
EB,
6A,
8D,
D3,
8D,
16,
BD,
25,
1C,
C0,
08,
02,
1E,
35,
99,
58,
05,
FA,
B1,
7A,
D1,
6E,
B0,
42,
A9,
A3,
44,
AB,
7E,
24,
E7,
26,
B0,
B2,
C2,
C0,
9B,
90,
59,
79,
75,
74,
5C,
71,
AE,
76,
11,
82,
3E,
9F,
F2,
24,
EA,
38,
A1,
8F,
DE,
F6,
EF,
BD,
A4,
BD,
AC,
BE,
54,
C7,
66,
E8,
C9,
87,
31,
91,
60,
15,
97,
BD,
9D,
74,
99,
EA,
10,
08,
B8,
65,
5F,
B1,
56,
5F,
E4,
CA,
11,
AC,
B0,
8B,
A5,
0C,
1C,
E5,
43,
F3,
D2,
93,
56,
2D,
D8,
C3,
2E,
59,
BA,
D4,
C2,
8D,
B8,
C8,
3A,
4D,
E3,
38,
40,
5C,
5D,
0F,
45,
5A,
83,
87,
DE,
E5,
2F,
2C,
A0,
44,
AD,
06,
28,
D7,
6B,
96,
56,
4E,
E3,
91,
8A,
B1,
D8,
B7,
DE,
FB,
38,
73,
4B,
F6,
D2,
87,
A2,
0D,
EB,
17,
E1,
7A,
38,
2A,
2A,
EF,
63,
48,
0F,
EC,
69,
3F,
62,
57,
4D,
F7,
05,
92,
6E,
33,
A8,
42,
F7,
9C,
57,
07,
DD,
34,
74,
A7,
85,
E6,
10,
66,
E3,
F2,
23,
CB,
A1,
CA,
BD,
26,
D1,
D6,
EE,
FC,
46,
BC,
07,
F9,
0F,
7A,
E1,
22,
41,
F6,
84,
D1,
10,
35,
76,
31,
6A,
27,
7A,
54,
9A,
CC,
84,
62,
BB,
2D,
E0,
8C,
F0,
7B,
7A,
A1,
89,
C0,
2D,
14,
5D,
79,
E7,
CD,
E0,
EA,
C6,
D1,
D7,
1F,
6A,
BE,
F4,
F2,
A5,
0E,
E1,
DA,
F8,
18,
72,
00,
51,
5B,
2D,
AD,
CD,
C5,
9A,
FE,
33,
28,
22,
C9,
A2,
48,
00,
74,
C2,
93,
92,
85,
30,
23,
A5,
FC,
08,
09,
85,
2A,
DB,
EA,
0B,
AB,
4D,
3F,
3A,
C6,
E8,
4A,
A4,
2B,
F3,
19,
B4,
1A,
FC,
6C,
42,
E2,
D9,
99,
F7,
88,
D1,
E9,
09,
A4,
D3,
31,
D5,
32,
87,
A8,
E1,
21,
2B,
15,
7B,
CE,
02,
B7,
C9,
95,
1E,
03,
98,
8D,
C4,
C0,
88,
AD,
41,
17,
D5,
2E,
7F,
87,
12,
28,
F1,
C4,
00,
10,
38,
63,
CE,
85,
0B,
AB,
C0,
54,
4C,
EB,
6A,
83,
CB,
09,
3C,
DC,
21,
C8,
28,
46,
0B,
16,
3D,
15,
0A,
A9,
C5,
29,
F8,
73,
28,
5D,
ED,
FE,
60,
90,
C6,
22,
92,
1E,
E7,
ED,
20,
96,
BE,
4D,
40,
90,
07,
8C,
5D,
3C,
53,
0F,
84,
12,
5B,
59,
22,
BD,
90,
3E,
BC,
7F,
9A,
22,
E0,
3C,
DC,
E5,
00,
C8,
E9,
22,
1B,
E2,
CD,
39,
9F,
B6,
C6,
71,
3E,
C1,
0F,
53,
1F,
A0,
B1,
B0,
77,
44,
F1,
B3,
67,
AA,
82,
A0,
B1,
36,
2B,
94,
C3,
95,
CE,
8A,
D0,
EA,
C2,
E3,
B8,
6A,
50,
79,
C1,
C2,
D0,
CA,
DD,
85,
3C,
17,
4C,
FA,
8F,
DC,
C7,
D4,
A1,
B2,
2F,
2F,
3B,
E4,
5F,
E5,
96,
23,
4D,
F6,
FF,
C4,
89,
B0,
BB,
C3,
45,
E5,
7D,
3A,
83,
E5,
F2,
00,
61,
FC,
26,
7D,
6E,
7F,
82,
9A,
88,
D6,
00,
2E,
1B,
3F,
AB,
3E,
A5,
B9,
B2,
D7,
EE,
29,
7B,
AE,
63,
B7,
87,
D7,
C1,
BF,
41,
33,
13,
AC,
3D,
97,
69,
28,
51,
1D,
63,
8E,
7A,
3B,
0D,
55,
31,
D3,
0E,
18,
B1,
E6,
9C,
09,
44,
E8,
17,
DF,
3E,
17,
CB,
5F,
42,
F1,
B1,
C9,
A0,
1C,
65,
9B,
F8,
D3,
FC,
4A,
7B,
76,
AC,
13,
65,
21,
9A,
C9,
7A,
C2,
71,
8F,
53,
89,
83,
74,
34,
BA,
1A,
11,
1F,
B7,
38,
C2,
25,
85,
E1,
22,
17,
7E,
8C,
1F,
10,
F5,
EF,
AE,
1E,
62,
34,
CC,
0E,
46,
47,
D4,
E7,
15,
C9,
70,
72,
1C,
C8,
E8,
C8,
2C,
C2,
71,
7E,
74,
8A,
B0,
3B,
79,
3F,
16,
30,
52,
57,
82,
7B,
AF,
F8,
D5,
F5,
10,
B9,
0F,
86,
07,
CB,
EC,
A5,
F0,
DD,
40,
56,
AB,
C6,
69,
B1,
35,
A0,
56,
CF,
93,
8A,
F6,
C7,
BD,
6D,
DA,
60,
0F,
10,
35,
69,
A7,
CD,
DB,
CD,
F2,
0F,
A6,
68,
AA,
B5,
C7,
FE,
E9,
D7,
86,
3D,
8C,
51,
D7,
39,
3D,
84,
5B,
E6,
FC,
ED,
66,
C6,
4E,
53,
67,
B2,
52,
BE,
0F,
F2,
BD,
87,
62,
88,
DA,
31,
71,
D2,
04,
A1,
0E,
9E,
50,
4E,
21,
E7,
8B,
4B,
14,
54,
ED,
35,
28,
8E,
14,
D8,
04,
58,
8F,
97,
EE,
23,
8E,
79,
33,
9D,
93,
4C,
68,
A3,
89,
D4,
44,
EB,
54,
D2,
6E,
2E,
AC,
28,
83,
D5,
8D,
5D,
C9,
62,
E0,
0F,
C2,
35,
E9,
AE,
BB,
57,
C6,
EB,
83,
45,
D8,
79,
A4,
17,
10,
BE,
20,
88,
68,
0B,
E0,
29,
6F,
14,
36,
CB,
A8,
93,
11,
B9,
89,
B8,
EB,
7D,
90,
01,
1E,
01,
22,
20,
6A,
C5,
46,
17,
20,
2B,
E2,
57,
B9,
5D,
B1,
2F,
06,
4F,
2B,
B3,
88,
E0,
DD,
37,
71,
4E,
4B,
FD,
1F,
7E,
1A,
30,
86,
9B,
05,
85,
FC,
36,
C0,
65,
2D,
C3,
47,
B7,
84,
FC,
31,
6C,
31,
9F,
FF,
43,
22,
D0,
65,
E4,
27,
2C,
40,
AD,
46,
44,
C4,
75,
37,
D2,
25,
9B,
E8,
DE,
AC,
57,
63,
46,
BD,
0D,
99,
19,
8B,
DB,
55,
3C,
98,
AE,
B9,
E1,
89,
22,
4C,
79,
98,
D6,
BE,
94,
8C,
17,
47,
3C,
E9,
46,
34,
C7,
85,
3A,
C3,
9B,
F8,
8F,
2D,
F6,
1A,
1C,
A2,
21,
C6,
72,
3F,
37,
E6,
C8,
D7,
7C,
34,
A7,
12,
C9,
05,
C4,
6F,
73,
CA,
74,
D3,
9D,
7A,
C8,
2E,
25,
44,
23,
45,
27,
16,
0C,
95,
37,
C1,
96,
20,
9B,
53,
06,
AB,
16,
29,
78,
5D,
8A,
45,
4A,
0B,
0D,
89,
ED,
A0,
C0,
A9,
93,
C0,
0C,
B3,
D0,
DA,
BD,
88,
72,
AB,
A7,
8D,
8B,
0F,
BB,
11,
29,
89,
24,
62,
53,
35,
46,
AE,
6B,
04,
12,
1D,
51,
EB,
87,
C6,
67,
AD,
CD,
61,
06,
F6,
67,
28,
B1,
0F,
7E,
D8,
18,
67,
C0,
F8,
54,
D2,
07,
85,
74,
A6,
60,
12,
76,
29,
75,
EC,
92,
5E,
A8,
0A,
91,
0E,
C7,
9D,
E1,
2F,
62,
17,
06,
6E,
E0,
81,
12,
14,
A1,
56,
E4,
97,
BB,
70,
09,
38,
2F,
CE,
93,
26,
0E,
DA,
2D,
5D,
86,
EB,
B7,
35,
41,
36,
3C,
50,
1F,
77,
25,
F8,
CB,
B2,
E9,
C9,
D5,
B2,
0D,
23,
E7,
B6,
33,
24,
18,
BE,
A8,
55,
B5,
58,
23,
DA,
8A,
74,
ED,
6C,
0F,
A4,
36,
1E,
37,
DE,
E8,
25,
D0,
A1,
F0,
89,
FD,
A4,
EC,
54,
CB,
01,
FF,
BC,
4A,
F4,
01,
63,
54,
06,
AF,
63,
26,
09,
91,
E5,
FE,
1F,
D8,
3F,
25,
67,
18,
BD,
7E,
84,
24,
74,
0D,
4A,
C6,
E2,
DF,
4C,
D3,
AD,
B3,
7D,
70,
CC,
03,
D0,
84,
B6,
06,
81,
1F,
11,
32,
11,
1B,
14,
22,
D0,
56,
2C,
7B,
BB,
60,
E5,
E4,
9C,
E4,
F7,
F7,
3F,
45,
A7,
7A,
DE,
27,
7A,
0B,
12,
E9,
49,
5B,
67,
A5,
EB,
E0,
DE,
0D,
3B,
E3,
29,
30,
A0,
A6,
23,
19,
F3,
F4,
1F,
8B,
CB,
ED,
14,
84,
65,
3A,
FE,
C8,
8D,
D6,
C2,
87,
7A,
F4,
44,
B8,
D4,
23,
BF,
E3,
EC,
34,
41,
BD,
E4,
74,
93,
AD,
C0,
66,
64,
F1,
55,
90,
39,
48,
71,
36,
FD,
0B,
F4,
ED,
F9,
78,
32,
6F,
0F,
54,
DC,
7B,
99,
5E,
F0,
DE,
13,
A7,
4F,
6C,
E7,
26,
8C,
3A,
22,
28,
1B,
C4,
40,
3A,
53,
72,
C3,
07,
47,
7B,
51,
C0,
66,
7D,
A7,
73,
E0,
7A,
40,
66,
FF,
56,
11,
01,
84,
98,
57,
01,
55,
FA,
AE,
C7,
53,
5F,
DE,
17,
23,
2D,
B8,
35,
D8,
DE,
1C,
B7,
10,
00,
3F,
56,
07,
1B,
75,
8F,
5E,
82,
0E,
3F,
BA,
CF,
0B,
35,
0B,
A6,
2F,
60,
41,
89,
AC,
9B,
11,
53,
D4,
72,
0B,
09,
75,
0A,
D2,
50,
24,
25,
1E,
64,
A2,
EB,
0C,
78,
25,
14,
90,
F2,
E7,
2E,
78,
75,
71,
D6,
3A,
FE,
E6,
1D,
B6,
0C,
B1,
56,
02,
6B,
72,
20,
AB,
63,
58,
A3,
3C,
EB,
9D,
A2,
1D,
19,
B0,
89,
D5,
74,
2E,
EE,
79,
EF,
03,
25,
EB,
E8,
5E,
34,
96,
84,
94,
89,
E9,
3B,
1C,
FC,
BF,
F9,
30,
56,
CF,
FA,
75,
A7,
43,
A0,
F4,
40,
64,
FB,
48,
4B,
D0,
1D,
81,
18,
60,
F7,
17,
F3,
5D,
12,
14,
1A,
84,
1A,
50,
0E,
0E,
53,
AD,
CE,
32,
C9,
5E,
AC,
4D,
EE,
F9,
AF,
EA,
35,
EE,
98,
FF,
BD,
5A,
64,
7E,
03,
61,
F4,
79,
91,
D3,
93,
03,
62,
A8,
9B,
86,
07,
5D,
DA,
2C,
31,
3B,
4A,
1B,
26,
B4,
D7,
33,
D0,
F2,
52,
1C,
7D,
96,
12,
CA,
FE,
51,
7E,
15,
C6,
DE,
70,
6D,
08,
38,
25,
7C,
A5,
1C,
BE,
10,
7F,
E7,
E5,
82,
1C,
44,
B3,
5E,
42,
EE,
2B,
3E,
E3,
62,
F0,
EB,
D3,
03,
75,
23,
D8,
E9,
AD,
B1,
DA,
5C,
C0,
2F,
02,
79,
CF,
B3,
FE,
94,
72,
6A,
46,
5E,
CC,
15,
C3,
9A,
0D,
E3,
73,
31,
B3,
8B,
2B,
B4,
4A,
12,
73,
D2,
05,
70,
40,
C3,
ED,
0D,
8A,
AF,
3A,
5C,
B1,
39,
BC,
11,
A7,
36,
CA,
D8,
29,
5B,
84,
33,
CE,
B8,
A5,
54,
A2,
66,
C3,
12,
25,
FB,
D0,
BF,
C2,
E7,
47,
2B,
0C,
1B,
B6,
CD,
CD,
C3,
F7,
4E,
FA,
DF,
57,
2A,
12,
6D,
F7,
C4,
18,
93,
4F,
4E,
5A,
9C,
39,
19,
B7,
5A,
F5,
33,
78,
7A,
B9,
92,
36,
4D,
85,
84,
31,
DC,
43,
58,
DE,
35,
49,
15,
D9,
33,
B5,
96,
41,
B9,
A9,
78,
91,
E2,
5F,
97,
39,
CF,
96,
64,
A5,
EB,
15,
4E,
AD,
1B,
F1,
25,
4A,
B3,
08,
F3,
B7,
BC,
17,
EC,
BE,
7F,
ED,
CD,
58,
79,
87,
FC,
AB,
83,
1A,
AF,
2F,
35,
44,
0A,
91,
61,
93,
7C,
79,
21,
4D,
61,
18,
59,
C5,
3C,
0C,
44,
5D,
E0,
A2,
AD,
92,
75,
C6,
77,
A8,
CD,
64,
BB,
7C,
06,
57,
0A,
89,
F0,
AE,
16,
6D,
F9,
D0,
0B,
49,
33,
FF,
14,
8E,
D7,
28,
96,
0B,
2A,
7A,
00,
EC,
F9,
AE,
E1,
E9,
04,
C1,
4C,
A6,
29,
1C,
63,
48,
3C,
36,
D8,
6D,
74,
21,
BA,
37,
D9,
B7,
69,
12,
0F,
AA,
35,
36,
A9,
65,
00,
27,
AC,
68,
FC,
B1,
DF,
4E,
BE,
E3,
7F,
E8,
75,
F0,
32,
D7,
0E,
E0,
6E,
AD,
89,
D8,
AC,
F0,
F1,
70,
36,
B6,
41,
99,
EC,
01,
9C,
6D,
0F,
2A,
0A,
43,
04,
34,
87,
EF,
D2,
C0,
AD,
A5,
40,
C6,
E9,
45,
11,
25,
57,
31,
00,
55,
84,
9B,
5C,
6E,
E5,
97,
CC,
42,
5F,
59,
4E,
CF,
03,
CD,
87,
7E,
1F,
69,
79,
21,
33,
9D,
57,
A2,
D2,
88,
1F,
D7,
01,
51,
DC,
97,
70,
C1,
9D,
5D,
C4,
40,
54,
FE,
02,
45,
16,
A2,
A5,
B2,
08,
31,
D6,
DE,
76,
52,
1A,
12,
A8,
71,
86,
50,
B7,
AA,
88,
9C,
17,
EE,
9E,
10,
38,
E8,
2F,
64,
82,
36,
4C,
61,
AF,
66,
A0,
D7,
EF,
A8,
7B,
A7,
17,
3F,
29,
EB,
08,
77,
18,
FC,
4B,
6E,
C1,
68,
30,
A1,
0C,
C3,
FA,
7D,
98,
09,
91,
39,
6D,
24,
47,
08,
96,
4F,
93,
7B,
93,
BC,
FC,
8A,
47,
51,
B3,
1C,
73,
DC,
39,
7A,
79,
F2,
D3,
8D,
B8,
98,
15,
51,
AB,
BA,
11,
06,
DE,
1E,
46,
0A,
F0,
9A,
D1,
6F,
63,
6E,
11,
F4,
48,
3C,
97,
87,
B6,
F1,
4B,
FC,
7E,
3D,
43,
DB,
69,
89,
7A,
54,
41,
84,
AA,
4E,
94,
18,
24,
72,
0F,
4D,
48,
29,
8F,
1F,
CF,
52,
95,
16,
FE,
91,
55,
96,
3C,
7E,
A2,
A1,
30,
D7,
7E,
5A,
DF,
66,
22,
B5,
D6,
78,
68,
8C,
96,
8D,
A9,
3A,
89,
17,
E6,
15,
4E,
29,
AE,
07,
39,
F8,
F9,
F4,
37,
5F,
A7,
3C,
50,
18,
99,
38,
92,
35,
04,
14,
8C,
F3,
00,
CD,
18,
0C,
00,
A2,
54,
0F,
92,
A0,
06,
3F,
4F,
F0,
7A,
34,
CD,
26,
F4,
CE,
F0,
A6,
67,
95,
4D,
C4,
AF,
88,
26,
5B,
BC,
F6,
92,
3D,
A7,
18,
D5,
D4,
33,
D0,
AF,
93,
70,
ED,
EE,
C7,
1A,
6C,
C7,
2C,
77,
F1,
C7,
A9,
9D,
E4,
78,
35,
F7,
00,
1F,
DC,
25,
CF,
A1,
36,
27,
D9,
2E,
FB,
37,
A4,
4F,
D0,
56,
19,
3C,
34,
10,
D0,
5F,
33,
5A,
2B,
C7,
A3,
D2,
E7,
D8,
48,
B3,
71,
73,
3A,
41,
A5,
57,
1C,
4E,
0E,
89,
FB,
C7,
67,
95,
8C,
1B,
9A,
78,
5A,
43,
FA,
0E,
1E,
EB,
61,
A6,
C6,
26,
71,
63,
C6,
AC,
55,
38,
59,
F8,
71,
D2,
DE,
14,
97,
B9,
B5,
B2,
F6,
51,
B9,
66,
09,
E9,
EE,
EB,
D7,
77,
87,
1D,
CA,
9F,
B6,
B3,
33,
79,
70,
9C,
53,
88,
1E,
F7,
14,
1C,
5C,
23,
C6,
2B,
F4,
68,
68,
3D,
47,
52,
57,
72,
18,
DF,
C9,
56,
F7,
F2,
F8,
03,
BE,
94,
9A,
55,
85,
09,
CB,
3A,
EC,
9D,
57,
DE,
63,
BB,
11,
97,
C5,
AE,
FE,
34,
B5,
53,
AF,
7C,
B6,
D9,
79,
6A,
F2,
ED,
F4,
5D,
58,
7D,
1B,
CB,
42,
D5,
5E,
B1,
19,
6D,
C6,
1C,
C9,
D8,
8A,
F9,
F2,
59,
97,
61,
88,
30,
4B,
18,
3C,
28,
81,
73,
1C,
6D,
00,
41,
D5,
C5,
3F;