memory_initialization_radix=16;
memory_initialization_vector=
02,
24,
96,
CA,
20,
A0,
99,
C7,
18,
DC,
24,
EB,
02,
4F,
4D,
6E,
AF,
00,
48,
C7,
91,
35,
B0,
B9,
53,
94,
8D,
FA,
95,
0E,
74,
C7,
47,
F1,
BD,
B9,
B0,
6D,
4B,
45,
86,
85,
8B,
40,
8F,
67,
58,
D1,
6F,
F9,
A0,
FE,
B0,
E8,
E4,
98,
CE,
E0,
96,
D1,
47,
94,
05,
B1,
01,
20,
BD,
06,
E1,
1C,
38,
20,
27,
E2,
BB,
AC,
52,
36,
F6,
CC,
79,
BC,
DD,
A9,
59,
4A,
1F,
D0,
E7,
2E,
5E,
18,
59,
F9,
38,
26,
20,
DF,
F9,
AB,
E2,
9A,
FF,
C7,
73,
D8,
54,
18,
BA,
9C,
D1,
F7,
0E,
DF,
34,
30,
D0,
EC,
0C,
20,
BF,
91,
D1,
64,
D8,
06,
84,
DF,
44,
DC,
B2,
46,
20,
C7,
4C,
15,
1B,
B1,
7C,
B1,
A2,
76,
3E,
30,
6B,
18,
B2,
3E,
25,
35,
27,
AF,
2D,
A7,
A9,
C4,
37,
C4,
43,
63,
CE,
3F,
BC,
31,
7C,
37,
79,
F3,
BB,
65,
09,
53,
02,
5A,
F1,
03,
58,
0A,
9B,
8C,
88,
09,
42,
DB,
AB,
77,
F7,
63,
D4,
35,
60,
D3,
2F,
8A,
F9,
6C,
14,
CC,
C0,
0E,
B5,
24,
BC,
81,
39,
A4,
12,
17,
E8,
E8,
72,
E8,
90,
2F,
F5,
8E,
2E,
74,
6B,
85,
11,
A8,
10,
01,
75,
82,
3D,
60,
A2,
21,
F4,
2E,
E4,
82,
FA,
E0,
B1,
52,
FE,
29,
9A,
A1,
30,
BE,
73,
5D,
AD,
A4,
E5,
53,
87,
5F,
E2,
9B,
B3,
E4,
A8,
B4,
0E,
4E,
97,
C7,
3D,
47,
82,
74,
85,
38,
72,
DC,
21,
E5,
79,
D3,
86,
56,
51,
A5,
41,
CF,
A8,
AB,
1F,
8D,
58,
5E,
9E,
7B,
57,
45,
C2,
CB,
ED,
45,
DC,
6D,
C6,
83,
10,
38,
9A,
62,
2B,
D8,
E8,
AD,
32,
20,
74,
0B,
D2,
14,
C6,
47,
65,
32,
8B,
68,
FD,
E9,
3D,
D8,
93,
57,
2D,
48,
B9,
1A,
2C,
DE,
BB,
8C,
0A,
D5,
95,
05,
33,
A7,
5A,
DA,
B5,
69,
63,
0E,
52,
0A,
40,
46,
00,
7F,
E8,
79,
13,
79,
5C,
3B,
18,
64,
60,
34,
0D,
88,
AE,
BC,
0E,
4A,
1C,
6F,
3F,
00,
94,
B5,
09,
6E,
DC,
9C,
12,
1B,
A7,
B7,
E0,
63,
F8,
F4,
8A,
D5,
04,
00,
5E,
F6,
DC,
5E,
C7,
65,
FF,
9D,
CD,
C0,
B0,
D5,
D5,
F9,
91,
35,
27,
02,
3F,
DC,
1B,
55,
27,
87,
6D,
25,
C3,
A5,
7F,
3E,
98,
4C,
70,
68,
50,
3B,
B4,
8D,
91,
16,
D1,
6E,
09,
2D,
98,
4F,
CB,
31,
8E,
7E,
1A,
09,
4D,
5E,
05,
97,
BA,
65,
4C,
35,
D1,
F9,
1D,
17,
4F,
1D,
8E,
1C,
11,
7C,
E5,
43,
97,
2A,
AD,
EE,
9F,
97,
1C,
B0,
0A,
A3,
17,
60,
AC,
EC,
6B,
ED,
29,
C3,
C6,
98,
65,
6B,
AF,
A0,
86,
D1,
10,
9E,
39,
F4,
B1,
CE,
81,
68,
DD,
DE,
AC,
85,
29,
68,
18,
0A,
D2,
CD,
5B,
0F,
B8,
A0,
AF,
94,
36,
27,
93,
4B,
63,
47,
D5,
AB,
42,
B7,
68,
8E,
C2,
5E,
6D,
8F,
99,
54,
5E,
92,
E8,
A8,
56,
52,
AB,
42,
4A,
5E,
34,
A6,
23,
13,
C4,
E9,
28,
DC,
91,
76,
31,
DD,
FA,
F9,
99,
31,
8A,
57,
64,
61,
4F,
F8,
45,
9A,
A1,
69,
AD,
3D,
84,
49,
46,
EA,
B6,
B8,
02,
F2,
35,
7E,
F2,
00,
A0,
A9,
31,
05,
D6,
0B,
CC,
24,
CB,
73,
B0,
62,
35,
AB,
19,
15,
30,
05,
A9,
AA,
EF,
F2,
6F,
D9,
AD,
1B,
F4,
33,
4F,
E9,
50,
29,
CD,
AE,
5A,
6A,
83,
F8,
08,
DD,
0B,
48,
E0,
DF,
96,
BB,
C2,
B8,
1E,
89,
6C,
AA,
7F,
BE,
28,
9B,
51,
E5,
49,
FD,
19,
95,
0E,
36,
24,
D9,
87,
8D,
05,
3F,
CA,
9F,
DD,
AB,
67,
20,
12,
FB,
36,
36,
3C,
56,
24,
00,
3D,
F9,
0F,
71,
6D,
31,
AD,
A7,
18,
9D,
ED,
5E,
E0,
4E,
B2,
36,
9C,
B6,
29,
AA,
B9,
B0,
C7,
FA,
D2,
EF,
DB,
32,
48,
F4,
3F,
8A,
CD,
60,
69,
3A,
F6,
99,
D6,
28,
7D,
94,
C2,
C9,
B3,
41,
C4,
BC,
10,
D7,
92,
66,
D5,
2E,
5A,
C1,
DD,
22,
46,
8C,
6C,
46,
48,
C8,
6C,
BD,
6F,
7E,
C4,
F7,
8C,
FC,
90,
72,
A7,
02,
90,
2B,
DC,
C0,
A0,
58,
A2,
CC,
2E,
A7,
33,
0D,
0D,
9B,
F1,
90,
28,
A1,
CA,
BA,
FE,
7F,
7D,
D7,
DB,
02,
E0,
23,
3A,
87,
86,
FF,
77,
AB,
D9,
B8,
71,
79,
C5,
0E,
3D,
6C,
98,
C3,
FD,
CD,
DF,
4D,
D8,
CE,
DA,
DF,
B1,
36,
8C,
32,
8E,
78,
F5,
D4,
33,
94,
F2,
50,
02,
F9,
1A,
00,
BE,
30,
0C,
44,
AA,
C8,
34,
2B,
D0,
01,
08,
81,
1B,
70,
EF,
DA,
D1,
DE,
FA,
5C,
73,
8C,
97,
E4,
D1,
5E,
47,
C4,
D6,
60,
45,
3A,
A6,
C1,
8B,
73,
D5,
72,
D8,
73,
38,
37,
8E,
96,
A6,
E2,
9D,
42,
7C,
C8,
29,
E6,
96,
8D,
85,
A5,
69,
C9,
A3,
33,
BC,
5A,
B5,
47,
F8,
24,
0D,
5C,
D3,
77,
04,
F5,
3D,
4B,
44,
5C,
B3,
52,
37,
D9,
7D,
D7,
44,
91,
C2,
A4,
E7,
18,
20,
64,
CE,
9B,
60,
C6,
06,
7B,
7A,
6D,
06,
10,
71,
EA,
41,
68,
D7,
8C,
CE,
9C,
D8,
7A,
C7,
B7,
DF,
67,
8E,
E5,
64,
64,
BA,
9B,
7C,
0D,
B3,
AD,
96,
68,
FE,
A9,
37,
32,
18,
17,
A7,
2E,
0E,
AE,
7B,
DE,
3F,
C2,
70,
CB,
41,
9C,
42,
9C,
68,
5E,
1B,
F4,
A6,
99,
C9,
CE,
6B,
77,
BF,
CB,
DD,
15,
F3,
DF,
EE,
1B,
EF,
68,
72,
AF,
D3,
87,
26,
07,
D0,
35,
10,
A8,
71,
86,
4C,
21,
55,
7C,
B1,
4B,
8C,
D0,
5D,
E1,
4D,
E9,
18,
12,
8C,
EB,
92,
07,
03,
70,
7C,
5D,
B9,
B5,
76,
38,
48,
91,
75,
E3,
0E,
48,
91,
8A,
B0,
20,
B8,
E1,
CA,
6E,
53,
12,
4E,
A1,
E8,
B3,
E5,
0E,
23,
05,
EA,
69,
CB,
D3,
4A,
D3,
A0,
51,
33,
1C,
D7,
10,
08,
B6,
EF,
A6,
79,
AC,
98,
41,
77,
73,
30,
A9,
28,
DE,
6F,
89,
38,
F8,
4B,
8A,
90,
23,
A9,
85,
C6,
02,
A6,
27,
1A,
CE,
D5,
A1,
42,
51,
99,
55,
4E,
0B,
89,
D7,
6E,
0F,
E3,
F8,
AC,
56,
5F,
B2,
C1,
64,
63,
22,
16,
EF,
1B,
71,
18,
38,
72,
06,
62,
38,
8C,
30,
AB,
83,
08,
09,
BA,
90,
8C,
8C,
B1,
F2,
ED,
F0,
33,
9E,
D8,
B9,
0B,
72,
1F,
F9,
64,
4E,
86,
8A,
5A,
D0,
02,
90,
7F,
71,
EE,
C9,
A3,
B4,
65,
F2,
77,
A1,
C5,
88,
E6,
CA,
D3,
FC,
D2,
3E,
A0,
1F,
45,
8B,
35,
0E,
E7,
40,
31,
CF,
2A,
BE,
A0,
0D,
2F,
4E,
27,
F5,
1F,
77,
BC,
5D,
0D,
1A,
D1,
8D,
40,
32,
82,
CE,
5D,
5C,
A7,
C1,
D0,
5B,
7A,
A6,
E7,
CB,
CC,
B4,
99,
E8,
21,
B8,
51,
F9,
8D,
4F,
A0,
DF,
15,
2C,
C2,
0F,
85,
B6,
06,
31,
50,
22,
CB,
BE,
20,
7F,
07,
61,
C7,
4E,
4B,
0A,
F4,
D9,
12,
87,
04,
DD,
70,
10,
68,
9C,
2B,
73,
AB,
FC,
51,
1B,
9D,
E3,
F1,
0C,
DA,
16,
C9,
27,
93,
F2,
B5,
60,
AE,
AF,
70,
5E,
23,
86,
0B,
CE,
AC,
6F,
89,
6E,
37,
BD,
D5,
1A,
8A,
1B,
F9,
D7,
19,
67,
F4,
18,
B6,
64,
09,
65,
BE,
93,
8E,
C9,
00,
B3,
9A,
93,
2E,
ED,
BF,
25,
88,
72,
2B,
47,
F6,
50,
33,
2E,
6D,
0D,
19,
B8,
9A,
C0,
32,
86,
1F,
82,
72,
27,
F6,
0E,
50,
BD,
FA,
E9,
C9,
85,
CD,
B7,
F1,
F5,
D1,
74,
9B,
04,
52,
65,
84,
C5,
44,
62,
76,
E4,
18,
BC,
C8,
DF,
14,
8D,
55,
86,
CD,
D1,
29,
11,
AE,
E4,
56,
87,
30,
07,
14,
A5,
F6,
86,
D0,
D1,
A6,
E8,
CC,
0E,
0D,
69,
8A,
9A,
32,
60,
34,
86,
B7,
CB,
D5,
85,
DC,
B6,
C1,
F3,
C4,
F9,
34,
62,
2B,
2B,
63,
FD,
07,
3B,
4D,
20,
2B,
EB,
C2,
F7,
B5,
77,
C3,
13,
15,
87,
4D,
85,
50,
9B,
79,
A6,
4F,
24,
CA,
C2,
16,
20,
0D,
0C,
09,
EC,
F3,
DD,
37,
86,
EB,
95,
03,
D4,
31,
F7,
3F,
1B,
A1,
51,
47,
13,
A1,
B7,
8B,
6F,
C9,
21,
34,
E3,
9A,
28,
BE,
46,
BC,
A9,
4B,
BD,
78,
1C,
E1,
E2,
81,
B4,
A5,
9C,
71,
EE,
83,
A9,
D3,
32,
DE,
74,
FF,
E3,
F7,
BA,
5B,
E8,
B2,
56,
E1,
F2,
76,
94,
0B,
E4,
D8,
8D,
1F,
CA,
D9,
60,
21,
D7,
7D,
2E,
4C,
63,
1A,
A1,
CB,
99,
72,
50,
71,
8D,
45,
A7,
B5,
B0,
F3,
00,
E2,
E5,
4C,
0B,
5B,
B9,
87,
B5,
8D,
E5,
C1,
D9,
4B,
77,
00,
B8,
93,
68,
E8,
7B,
7A,
D0,
C0,
C6,
B0,
88,
16,
70,
41,
E0,
B5,
5D,
41,
1F,
E7,
10,
57,
8A,
8E,
09,
6B,
3F,
28,
63,
03,
96,
A6,
A9,
7E,
62,
AD,
A1,
32,
9E,
74,
0C,
6B,
AE,
E7,
96,
74,
E8,
03,
5E,
1C,
60,
D5,
CE,
61,
EB,
CE,
88,
7C,
D9,
3C,
27,
58,
3E,
0D,
C4,
5B,
72,
89,
BD,
EA,
37,
23,
9B,
D5,
CD,
8A,
46,
FF,
E4,
5D,
00,
6D,
C9,
31,
4B,
BD,
65,
A2,
C3,
88,
50,
DE,
AE,
EB,
8E,
D6,
A1,
E6,
B1,
2F,
DD,
13,
C3,
6D,
1D,
17,
C8,
A5,
79,
8B,
22,
50,
03,
51,
11,
DB,
72,
DD,
B7,
17,
19,
3E,
B1,
A4,
0B,
1A,
D6,
BB,
DB,
A5,
68,
A2,
6C,
54,
40,
04,
22,
76,
5A,
ED,
8C,
CA,
BA,
66,
7E,
8D,
08,
5F,
47,
C9,
AC,
0B,
4F,
19,
A4,
EC,
1E,
7B,
7A,
B4,
1E,
06,
03,
5B,
19,
83,
8B,
8D,
FD,
E9,
70,
FE,
7F,
53,
A5,
21,
51,
AC,
BB,
47,
36,
39,
89,
86,
97,
FD,
8F,
9C,
6B,
F9,
05,
53,
41,
C0,
F6,
C8,
62,
A0,
08,
04,
83,
E6,
4D,
25,
27,
53,
89,
10,
0D,
26,
AA,
3F,
00,
7F,
3F,
1F,
9A,
C5,
B4,
4A,
22,
40,
33,
0E,
AE,
68,
95,
53,
A8,
66,
D2,
41,
44,
E8,
E5,
F0,
B4,
FD,
53,
E3,
C3,
D9,
B6,
C6,
4B,
49,
CD,
AC,
91,
06,
59,
D1,
1A,
42,
17,
03,
89,
0B,
90,
E4,
AE,
00,
02,
21,
2C,
D7,
70,
9D,
8C,
CC,
6A,
B9,
B9,
F7,
8F,
DF,
2D,
65,
A2,
AE,
47,
51,
51,
7D,
61,
CF,
1C,
C7,
B6,
69,
F8,
26,
69,
4B,
4C,
61,
15,
53,
AD,
FE,
D9,
50,
FD,
93,
CC,
2B,
76,
2E,
D2,
96,
1E,
56,
61,
CB,
3A,
EF,
6D,
8B,
6E,
10,
B4,
E6,
32,
3E,
13,
22,
F1,
4E,
14,
98,
C1,
D2,
9A,
0A,
75,
C9,
0B,
EA,
44,
16,
2F,
FD,
05,
E2,
A8,
A3,
2B,
52,
5F,
3D,
75,
60,
71,
9E,
40,
A1,
E2,
90,
2A,
A2,
B0,
9F,
2C,
8F,
38,
09,
F1,
0D,
AE,
D6,
A0,
D9,
C2,
9A,
92,
0E,
13,
88,
22,
85,
3B,
3F,
A2,
70,
05,
73,
D5,
2B,
A8,
E8,
C0,
DB,
D4,
68,
65,
8B,
B5,
B0,
4A,
83,
A5,
57,
4D,
C0,
CD,
96,
7A,
0F,
30,
7D,
84,
4F,
D8,
A6,
8E,
93,
5C,
24,
98,
C0,
1C,
4D,
98,
9B,
90,
E3,
3C,
B2,
E6,
84,
BA,
DC,
A7,
F5,
50,
B0,
7F,
20,
8E,
56,
E8,
20,
EB,
EE,
34,
95,
0C,
90,
8E,
B9,
D4,
BA,
C7,
37,
8E,
18,
E6,
4B,
13,
05,
F1,
86,
7E,
5A,
EC,
9C,
93,
AC,
6D,
94,
2E,
7E,
F7,
C4,
59,
CD,
56,
16,
D6,
62,
05,
45,
2A,
7C,
18,
C0,
48,
8B,
F7,
2E,
EF,
EE,
E8,
0C,
CE,
33,
1C,
B6,
1D,
66,
68,
EE,
48,
76,
20,
91,
28,
88,
11,
16,
E4,
33,
D4,
9F,
FB,
29,
07,
01,
A4,
70,
8B,
ED,
CF,
5B,
12,
3E,
E3,
0A,
2C,
B4,
61,
45,
BE,
FE,
65,
77,
7D,
D9,
B9,
CC,
9E,
35,
42,
A5,
FC,
16,
92,
90,
06,
21,
4E,
AF,
7F,
E5,
A5,
3D,
F5,
01,
30,
2E,
62,
E0,
07,
88,
E8,
15,
EF,
2A,
D5,
23,
CA,
5D,
61,
85,
9E,
10,
40,
4A,
F5,
95,
F7,
2B,
58,
67,
47,
AB,
C3,
72,
4A,
E8,
AC,
E5,
18,
FE,
EE,
AA,
2B,
00,
F7,
77,
11,
D2,
52,
6E,
6D,
8D,
0D,
C5,
16,
6C,
92,
6A,
F5,
F0,
47,
86,
89,
46,
54,
35,
6C,
E4,
CF,
88,
0C,
5A,
62,
C6,
F3,
75,
AE,
41,
C4,
2F,
E9,
1A,
0F,
B6,
1C,
2F,
27,
A3,
C1,
2E,
68,
95,
8A,
36,
98,
09,
17,
3C,
0A,
E8,
12,
70,
DE,
76,
5B,
48,
D8,
47,
50,
69,
A7,
9C,
5B,
D4,
F5,
BE,
16,
CC,
17,
3F,
32,
EC,
48,
F4,
67,
50,
4F,
4A,
95,
18,
7C,
A5,
6E,
CD,
BF,
F5,
C3,
59,
DB,
DD,
8A,
6A,
5D,
A9,
17,
7F,
1F,
AC,
49,
8D,
06,
28,
E1,
A5,
74,
89,
91,
27,
EF,
98,
1B,
3C,
24,
F0,
D5,
30,
0D,
E7,
A2,
92,
42,
4B,
C7,
D8,
A1,
D7,
6D,
90,
1A,
D6,
64,
60,
F8,
A2,
65,
2B,
98,
40,
C9,
22,
42,
BB,
E2,
FD,
44,
02,
5D,
0C,
BA,
C1,
D9,
F1,
8F,
F0,
41,
1E,
52,
C0,
50,
33,
7E,
6D,
17,
A6,
8E,
21,
1B,
24,
DD,
AA,
2A,
BB,
12,
A7,
84,
72,
D2,
2A,
2A,
65,
5C,
5B,
5C,
78,
07,
4F,
15,
BE,
E2,
BE,
56,
96,
60,
6F,
F8,
99,
71,
5E,
51,
27,
B5,
FA,
B1,
DE,
F9,
93,
B4,
1C,
1F,
F0,
52,
9C,
30,
63,
88,
EB,
FB,
3D,
42,
3F,
13,
F3,
6D,
CC,
EA,
F1,
35,
07,
B0,
8F,
47,
B5,
01,
4C,
76,
E1,
0F,
69,
10,
29,
7B,
CB,
3C,
08,
47,
50,
FB,
45,
00,
4C,
7C,
29,
A9,
81,
A9,
8B,
BA,
5F,
CF,
BA,
03,
9A,
9F,
38,
1D,
EE,
35,
B8,
E2,
33,
C7,
20,
D6,
C6,
EF,
2C,
A8,
71,
2C,
91,
9D,
33,
DC,
D0,
01,
3E,
F1,
BC,
2C,
B4,
51,
30,
1C,
3D,
0A,
0D,
4E,
B5,
A8,
E3,
B9,
BF,
10,
A5,
C0,
14,
0D,
31,
FB,
F2,
EF,
5A,
62,
E3,
88,
5E,
48,
F6,
5D,
B9,
AB,
61,
44,
AE,
CD,
7E,
0F,
2C,
10,
8F,
51,
D2,
24,
83,
E9,
EE,
26,
0E,
F7,
2F,
6C,
FA,
ED,
BC,
91,
F7,
D9,
36,
6C,
BE,
04,
2A,
7D,
A0,
50,
09,
63,
DD,
5D,
A7,
56,
6A,
AE,
CA,
A4,
04,
53,
F9,
DA,
94,
C6,
D9,
8C,
72,
63,
37,
BB,
B9,
D0,
5C,
47,
98,
63,
AD,
CB,
D2,
B8,
68,
FD,
D9,
DF,
97,
2E,
47,
32,
0C,
67,
F8,
56,
07,
14,
05,
F6,
01,
71,
C0,
96,
5A,
79,
56,
F5,
AC,
6D,
CF,
B8,
07,
A3,
24,
41,
53,
83,
A6,
9B,
D5,
66,
B4,
2A,
15,
F9,
31,
DF,
FC,
97,
C0,
68,
82,
70,
97,
F7,
7E,
CD,
98,
D0,
17,
CF,
DE,
C3,
7D,
47,
15,
A9,
CF,
B7,
ED,
8F,
9B,
A6,
29,
DA,
21,
C7,
40,
E2,
58,
10,
B1,
A5,
BD,
D6,
14,
0F,
33,
79,
43,
76,
55,
48,
B7,
B3,
BB,
EC,
AF,
07,
5C,
B8,
82,
FF,
F8,
54,
58,
00,
62,
03,
13,
5B,
0B,
E7,
99,
AD,
54,
69,
76,
03,
27,
71,
36,
24,
71,
4D,
4D,
8C,
CD,
1B,
F2,
32,
59,
FA,
08,
56,
AC,
3D,
0F,
53,
54,
B7,
98,
32,
F7,
0F,
5C,
E5,
CF,
29,
82,
10,
54,
5C,
1B,
58,
AA,
10,
88,
90,
DD,
0C,
A2,
E4,
07,
DF,
BE,
24,
13,
10,
90,
82,
0D,
A6,
CA,
B9,
F7,
DF,
FC,
02,
A2,
6C,
E7,
A0,
9D,
1B,
C9,
46,
53,
26,
EE,
E7,
D6,
5A,
1C,
0C,
54,
66,
DB,
F2,
44,
79,
07,
97,
7C,
3B,
6F,
8C,
D3,
0A,
C8,
7E,
FC,
5D,
82,
4D,
47,
F9,
AA,
4F,
F2,
4B,
C9,
A0,
0A,
6E,
7B,
B1,
9A,
21,
D9,
FD,
E2,
E5,
BF,
7D,
1F,
75,
57,
DE,
0E,
56,
D7,
1C,
C8,
E0,
2E,
24,
AE,
9F,
23,
EB,
E5,
1B,
62,
AD,
5B,
DC,
4C,
90,
5E,
3B,
2A,
E8,
F5,
85,
3F,
9B,
85,
21,
10,
D4,
E8,
84,
69,
BB,
E3,
00,
5B,
A8,
DF,
10,
8D,
FD,
57,
48,
67,
9F,
DB,
02,
19,
8B,
CE,
22,
98,
02,
D7,
8F,
71,
33,
DE,
93,
BE,
DA,
86,
DB,
3F,
0D,
B3,
7A,
15,
7C,
9B,
20,
D2,
71,
F9,
FC,
8D,
86,
7F,
53,
5C,
19,
FA,
E2,
94,
5E,
28,
AF,
AA,
08,
EE,
BD,
64,
CC,
38,
73,
1A,
AC,
55,
60,
AD,
3A,
6D,
FC,
B5,
27,
DC,
47,
1E,
F8,
0B,
5F,
C8,
DB,
A3,
07,
C1,
E0,
21,
EF,
41,
42,
7C,
5A,
3F,
48,
43,
FD,
50,
61,
37,
CD,
CF,
14,
03,
72,
CF,
9F,
CB,
27,
E4,
A7,
48,
AF,
28,
A3,
30,
4A,
C2,
C7,
9D,
BB,
EE,
8F,
92,
47,
8E,
02,
A2,
D8,
17,
A1,
FF,
B7,
71,
B3,
20,
5A,
9A,
A4,
6A,
2C,
BF,
C3,
3D,
30,
5D,
A7,
CD,
50,
F4,
F3,
03,
F9,
F3,
9F,
E4,
96,
1F,
EB,
BD,
96,
F0,
44,
D8,
09,
18,
7A,
4E,
E2,
BB,
34,
BF,
BB,
39,
E0,
1A,
9D,
72,
C5,
7D,
3B,
2A,
D9,
22,
31,
0D,
52,
6F,
45,
DF,
97,
1A,
6C,
3C,
EE,
BD,
BC,
0F,
D9,
27,
47,
BD,
A4,
63,
15,
88,
BA,
35,
5A,
7E,
F6,
10,
E3,
1F,
E3,
EC,
7E,
88,
00,
6E,
E5,
EC,
7F,
AE,
12,
6A,
E8,
6E,
13,
0E,
A1,
0C,
5C,
5D,
1F,
D3,
CA,
8D,
F3,
E2,
9F,
70,
5E,
0B,
12,
1B,
5D,
FD,
9B,
C7,
7E,
28,
E2,
D5,
E9,
E1,
5A,
6C,
FC,
C5,
D2,
7B,
8F,
23,
60,
40,
9B,
86,
48,
F6,
AB,
0F,
64,
E9,
F1,
CB,
BD,
03,
CD,
21,
09,
27,
AD,
60,
8A,
F8,
D6,
28,
CE,
4F,
DD,
8D,
44,
CD,
74,
CB,
3A,
4A,
AB,
8D,
D6,
85,
70,
87,
11,
1C,
34,
A4,
88,
88,
55,
48,
CE,
2D,
EB,
1B,
99,
9C,
C2,
C9,
79,
48,
07,
85,
0B,
DA,
17,
8D,
D8,
4B,
4C,
60,
5F,
1D,
67,
3A,
66,
B3,
EF,
EB,
C7,
D0,
57,
C6,
C0,
1E,
73,
D2,
B9,
87,
04,
9D,
86,
C7,
C7,
B9,
CD,
E6,
B4,
98,
E4,
13,
76,
79,
85,
2C,
F7,
B7,
82,
40,
34,
79,
D0,
FA,
43,
D5,
A7,
56,
71,
C3,
FE,
EC,
7D,
BE,
E5,
82,
14,
0F,
C6,
D7,
22,
8E,
8A,
05,
63,
4E,
74,
8A,
0E,
CF,
D1,
2C,
0E,
47,
EC,
8C,
0A,
04,
0D,
E0,
5C,
EE,
FD,
1D,
D1,
08,
57,
04,
A3,
68,
81,
9F,
71,
9B,
E5,
D9,
FC,
22,
83,
02,
79,
09,
58,
D3,
F2,
E2,
50,
D1,
14,
65,
08,
AC,
97,
D8,
72,
E2,
BB,
F7,
C2,
C2,
DA,
21,
0E,
23,
D5,
6F,
B1,
12,
9C,
7F,
5F,
E2,
4D,
C1,
9F,
C4,
BF,
FD,
BA,
49,
26,
71,
1B,
89,
E2,
DC,
95,
EE,
A9,
D3,
F4,
59,
4D,
A5,
E0,
E1,
E7,
B3,
54,
5E,
03,
DE,
8A,
68,
4F,
0C,
B8,
6B,
D1,
29,
3D,
84,
19,
89,
0F,
27,
19,
49,
2C,
00,
FF,
E9,
3C,
AF,
5B,
DB,
1A,
E4,
41,
8D,
2A,
A5,
5B,
9B,
A2,
08,
D7,
13,
34,
15,
A1,
1B,
BC,
7D,
4C,
86,
06,
1C,
D5,
2B,
F3,
3F,
45,
B0,
6F,
2B,
DD,
6B,
65,
AF,
DD,
0F,
51,
C3,
77,
0B,
58,
AF,
87,
4E,
74,
1D,
87,
8B,
12,
88,
7D,
62,
86,
40,
AA,
03,
36,
FB,
13,
0B,
23,
B7,
4B,
DD,
17,
CC,
2E,
D4,
1A,
7B,
E5,
D2,
60,
B8,
38,
08,
46,
D2,
0F,
FC,
A0,
B9,
58,
B0,
E0,
7E,
4B,
7E,
A3,
81,
2E,
EE,
1E,
7A,
12,
5B,
A4,
17,
71,
3D,
E7,
B3,
86,
05,
92,
33,
5D,
24,
0B,
1F,
E4,
7E,
9B,
8E,
2C,
E8,
9A,
51,
28,
5B,
42,
28,
4B,
ED,
CF,
B3,
AD,
D6,
7D,
33,
66,
D1,
1D,
DA,
ED,
16,
23,
51,
51,
B0,
09,
6C,
3F,
44,
D5,
1B,
22,
CC,
3F,
D5,
F7,
76,
68,
D2,
46,
B1,
89,
D9,
A2,
A4,
1F,
D7,
87,
F0,
F2,
B0,
31,
9C,
6D,
47,
FF,
B4,
E4,
60,
FF,
15,
4A,
6B,
93,
DF,
55,
6D,
1E,
94,
B7,
28,
27,
5C,
C8,
73,
71,
91,
82,
C1,
95,
B2,
D1,
61,
25,
24,
8D,
26,
7C,
36,
1C,
01,
C5,
40,
9A,
03,
38,
A2,
7E,
C3,
7C,
81,
92,
9B,
45,
03,
CD,
57,
EE,
33,
1C,
B9,
BE,
E6,
EC,
02,
62,
9E,
2E,
2C,
A4,
8C,
9F,
37,
F7,
19,
1A,
D5,
74,
A3,
0E,
F5,
DA,
70,
AB,
9D,
99,
4A,
24,
2F,
65,
9C,
6E,
57,
D6,
56,
C6,
CC,
12,
E1,
F4,
9D,
C3,
43,
35,
B1,
F2,
FD,
EA,
C5,
B0,
B0,
D1,
DA,
14,
EC,
A1,
C5,
D4,
14,
D8,
B1,
67,
1E,
A1,
D2,
E6,
0E,
4B,
2D,
F6,
71,
D4,
6F,
2F,
66,
AE,
A3,
35,
9C,
6D,
48,
24,
CA,
83,
10,
83,
96,
09,
9E,
0E,
1B,
DD,
1A,
1C,
0A,
DF,
2A,
E1,
42,
7E,
1E,
C7,
1C,
76,
18,
EF,
C0,
24,
9E,
A0,
DF,
99,
BE,
8D,
44,
3A,
AA,
9B,
DD,
1E,
95,
5E,
F8,
52,
B5,
96,
04,
EE,
1A,
17,
DB,
E5,
92,
0C,
AC,
3B,
02,
83,
E5,
41,
69,
F7,
5B,
DE,
6D,
BF,
E8,
A0,
C7,
F8,
7A,
7B,
5F,
88,
01,
F6,
14,
5D,
E7,
C1,
62,
19,
26,
93,
02,
1A,
A2,
CA,
ED,
A8,
EB,
52,
E2,
88,
84,
8A,
3D,
BA,
B1,
69,
33,
23,
C6,
F2,
13,
13,
BF,
E7,
A0,
32,
2B,
5A,
B4,
61,
CE,
A6,
0C,
78,
3C,
78,
AC,
0D,
5E,
0C,
EE,
44,
E4,
D4,
C9,
57,
D3,
CE,
3E,
51,
13,
F7,
AE,
0D,
F8,
C0,
AE,
62,
F7,
09,
DC,
14,
FC,
70,
B3,
21,
33,
B3,
90,
58,
5A,
A1,
F2,
42,
56,
B5,
14,
71,
D4,
AC,
AB,
76,
4C,
AC,
26,
C6,
3B,
F9,
32,
62,
5F,
4B,
15,
A1,
FF,
66,
C0,
1A,
98,
90,
E4,
12,
95,
18,
74,
E1,
8A,
10,
04,
79,
32,
52,
AE,
DF,
4B,
C1,
07,
53,
B4,
A4,
71,
48,
1C,
8C,
F7,
A3,
51,
F5,
4C,
B9,
4C,
6D,
93,
EE,
0D,
3E,
6B,
18,
F9,
FA,
A8,
FA,
4A,
FE,
F4,
2C,
52,
AE,
F3,
A7,
3E,
4C,
3E,
42,
9A,
19,
8D,
4F,
08,
16,
8C,
24,
12,
15,
4E,
03,
8B,
83,
77,
52,
5D,
6E,
BA,
F5,
6D,
1B,
F0,
0C,
2B,
8A,
4F,
AF,
86,
5A,
37,
A8,
3C,
C9,
B7,
B0,
D0,
CB,
0F,
36,
B5,
C8,
61,
D7,
FA,
3B,
6A,
CF,
60,
81,
A4,
DC,
2D,
8B,
CB,
3C,
67,
AC,
E2,
4C,
66,
FD,
24,
9C,
1F,
AF,
24,
E8,
2B,
67,
6D,
7D,
68,
19,
F2,
F5,
8B,
C3,
20,
28,
36,
67,
D1,
FB,
7E,
F7,
15,
E4,
63,
94,
9F,
8C,
99,
E4,
76,
2A,
FB,
50,
DD,
75,
20,
30,
E0,
F2,
D2,
C5,
97,
63,
E5,
1A,
D3,
D7,
D5,
73,
F1,
92,
4D,
5A,
10,
3A,
D5,
4F,
85,
AC,
71,
7C,
BB,
92,
02,
42,
2A,
22,
7C,
0C,
36,
F0,
90,
DD,
7B,
EF,
00,
3C,
24,
B0,
C8,
C5,
35,
21,
34,
D3,
A5,
0B,
63,
BD,
FC,
BC,
69,
20,
B7,
4B,
14,
06,
C0,
0D,
5A,
E3,
11,
53,
14,
12,
A5,
FE,
81,
64,
0E,
43,
75,
61,
A2,
D8,
74,
B1,
E5,
F1,
CC,
D2,
29,
96,
D0,
B6,
47,
88,
1B,
B7,
C4,
E9,
1E,
F7,
C1,
6F,
C4,
2F,
C2,
38,
0D,
30,
77,
FF,
16,
42,
C5,
81,
B3,
C0,
04,
AA,
0D,
3D,
3B,
C0,
6D,
23,
B5,
0E,
88,
F8,
B1,
65,
67,
3B,
99,
01,
20,
E2,
64,
52,
E0,
C3,
F0,
0E,
C1,
0C,
1A,
12,
2F,
B7,
E4,
77,
82,
B6,
6B,
8B,
B3,
ED,
D7,
6A,
B5,
55,
6D,
A1,
48,
43,
AC,
AA,
36,
FC,
B2,
FB,
94,
23,
11,
09,
AE,
1F,
C6,
E3,
D7,
86,
C1,
8A,
40,
DC,
ED,
44,
C9,
8C,
3A,
02,
93,
BB,
9B,
5A,
76,
78,
8C,
EA,
02,
54,
5A,
95,
58,
4F,
F6,
E2,
11,
15,
93,
F6,
CC,
86,
66,
E1,
EF,
66,
11,
70,
B7,
BB,
ED,
D3,
84,
92,
CB,
60,
78,
01,
94,
23,
E5,
69,
92,
F8,
2D,
EE,
23,
64,
8A,
8E,
B9,
06,
93,
2A,
40,
E2,
98,
26,
99,
2F,
C3,
FF,
C1,
D9,
19,
7E,
C1,
BD,
55,
72,
64,
87,
08,
C3,
E6,
A4,
9D,
CF,
70,
CF,
49,
B7,
B7,
A1,
F7,
F6,
61,
41,
79,
76,
9A,
6F,
F9,
B2,
84,
36,
68,
12,
C3,
A6,
86,
7F,
B0,
A4,
5F,
51,
E0,
AE,
9F,
1D,
E3,
AD,
5B,
BF,
39,
F7,
EE,
33,
8E,
60,
DA,
E1,
3D,
3A,
77,
E0,
3B,
15,
64,
02,
E9,
9C,
AE,
C9,
7D,
CD,
06,
51,
C4,
30,
5B,
CC,
64,
96,
40,
76,
1B,
6B,
7A,
3E,
ED,
B4,
53,
A4,
F0,
07,
53,
B1,
C2,
5D,
AA,
15,
52,
0F,
C1,
E0,
4B,
3D,
9E,
14,
2D,
46,
3E,
0B,
A1,
5F,
FB,
2F,
E1,
38,
FE,
32,
9A,
0A,
CF,
CA,
7B,
78,
0D,
44,
8B,
2F,
17,
67,
74,
78,
95,
41,
A8,
47,
1F,
06,
92,
F4,
9F,
3C,
04,
B6,
8A,
B7,
67,
6F,
B8,
61,
A8,
B7,
9F,
28,
0B,
B8,
75,
0F,
C8,
22,
14,
19,
60,
E5,
83,
1E,
F1,
D8,
F4,
31,
CA,
49,
0C,
3A,
8F,
EB,
AD,
05,
BD,
1C,
06,
83,
4A,
15,
A5,
59,
DC,
BE,
2A,
1C,
4A,
3F,
5B,
45,
BA,
07,
2C,
D8,
CD,
15,
60,
84,
B4,
62,
30,
07,
2C,
3E,
E5,
1C,
4D,
D6,
BC,
D0,
85,
B9,
62,
25,
B7,
05,
85,
8B,
0B,
68,
0F,
31,
BA,
53,
0B,
43,
B2,
39,
43,
08,
F8,
6A,
5E,
15,
B1,
5B,
8F,
F4,
0E,
ED,
62,
71,
03,
32,
02,
C6,
E9,
8B,
91,
FC,
1E,
03,
77,
2C,
4A,
EB,
FE,
84,
92,
35,
C9,
54,
EE,
B3,
B6,
3E,
00,
94,
4F,
F7,
95,
39,
DA,
9A,
B7,
46,
C4,
D7,
8E,
FC,
34,
CE,
CD,
F4,
DD,
0C,
44,
FD,
1D,
95,
D0,
AC,
AF,
0A,
E2,
1E,
39,
29,
D3,
1E,
73,
F2,
7A,
AC,
72,
88,
2C,
50,
4B,
38,
EB,
46,
C0,
DC,
92,
87,
C3,
6E,
91,
FB,
2A,
16,
4D,
C5,
C6,
55,
E2,
C2,
15,
1B,
BE,
19,
E4,
C2,
73,
D2,
81,
9B,
31,
50,
28,
F1,
0A,
63,
39,
E9,
39,
4E,
3F,
E2,
AA,
C2,
1F,
C4,
0F,
9D,
E0,
44,
DD,
A9,
82,
05,
71,
7B,
19,
5B,
06,
66,
A4,
17,
CA,
9B,
C2,
18,
B8,
04,
11,
03,
3E,
CA,
41,
BD,
83,
F3,
8A,
9E,
C1,
E4,
5B,
F0,
C8,
D1,
7D,
E6,
81,
6C,
2E,
4C,
AA,
3F,
73,
BD,
E0,
52,
7B,
14,
B9,
16,
3B,
81,
72,
26,
AD,
F6,
BE,
9B,
43,
90,
73,
88,
47,
C6,
EC,
C6,
A0,
D4,
A4,
93,
38,
5B,
8F,
05,
89,
F2,
0B,
A1,
2B,
D3,
05,
1C,
A4,
AF,
75,
2E,
E6,
97,
B9,
DA,
CB,
DE,
DE,
F7,
5C,
1E,
66,
3F,
C9,
D9,
F8,
DF,
69,
09,
AE,
24,
13,
D4,
8B,
A8,
8F,
3C,
47,
C8,
7C,
B8,
5E,
FC,
05,
06,
33,
D9,
8D,
3E,
4B,
8A,
38,
C9,
AD,
E7,
12,
BF,
44,
25,
D7,
DC,
92,
52,
8C,
2B,
DF,
14,
3C,
EB,
87,
37,
FD,
CB,
53,
FA,
01,
7B,
B4,
03,
BB,
E0,
CD,
11,
12,
09,
D2,
53,
C0,
A4,
1B,
1C,
3E,
14,
D6,
5E,
25,
9C,
11,
28,
AD,
77,
52,
2D,
EE,
31,
C2,
FF,
75,
AC,
19,
6B,
35,
AD,
94,
E5,
E9,
0D,
7C,
1C,
C1,
60,
F5,
19,
A6,
B3,
85,
BD,
60,
48,
25,
DA,
D8,
08,
B3,
EE,
6C,
F8,
21,
9B,
45,
B0,
82,
AE,
8F,
64,
0F,
94,
B3,
E6,
4A,
A0,
02,
E9,
98,
48,
61,
88,
A6,
F4,
7D,
5F,
B6,
5D,
40,
2C,
E3,
90,
38,
FD,
72,
F0,
93,
3F,
89,
08,
CA,
B4,
8E,
90,
8B,
5E,
13,
92,
3D,
A0,
CD,
4E,
10,
4B,
62,
E1,
98,
1C,
35,
25,
4F,
D9,
DC,
68,
81,
D7,
D6,
04,
03,
AC,
B7,
E3,
9D,
AF,
E7,
65,
26,
7C,
63,
40,
15,
23,
48,
06,
FC,
BE,
7B,
FE,
5F,
8A,
DD,
65,
D8,
B3,
F2,
58,
C2,
7D,
20,
8A,
A5,
38,
11,
E3,
2E,
C6,
D8,
CC,
76,
EC,
5A,
0F,
1F,
AE,
B5,
44,
D0,
62,
6A,
B9,
BB,
D6,
85,
21,
2D,
9C,
52,
E6,
13,
67,
DE,
49,
5C,
D1,
F6,
25,
C2,
70,
0A,
CC,
06,
4F,
AF,
57,
08,
5C,
4D,
38,
A6,
96,
C4,
9E,
96,
8B,
62,
F9,
74,
AA,
AE,
21,
24,
F3,
4D,
CF,
83,
16,
4B,
74,
81,
99,
48,
A0,
38,
EC,
D2,
97,
1A,
2B,
90,
F3,
8F,
D6,
C9,
90,
A2,
00,
D9,
F7,
13,
15,
61,
FE,
11,
B4,
32,
6E,
59,
98,
9E,
4F,
5A,
13,
AA,
9C,
44,
61,
20,
4C,
87,
8D,
2F,
79,
5F,
1A,
9D,
11,
91,
FB,
28,
3B,
18,
B9,
B4,
D0,
CB,
C6,
63,
55,
3C,
AE,
D0,
45,
EE,
F2,
82,
94,
F1,
38,
BA,
E8,
B7,
9D,
9E,
BD,
5D,
1B,
6F,
5C,
EB,
93,
13,
DB,
D7,
4A,
5D,
57,
63,
00,
71,
C5,
59,
C5,
2F,
11,
DF,
B5,
AF,
69,
B0,
48,
A4,
E4,
74,
87,
55,
16,
42,
6D,
D6,
0E,
61,
15,
D6,
BF,
4C,
91,
6F,
68,
09,
96,
E9,
30,
5C,
65,
98,
2F,
AE,
A4,
3B,
42,
A9,
8D,
B1,
CB,
9C,
9F,
1D,
81,
DA,
F9,
22,
B1,
C9,
42,
01,
DF,
96,
D5,
6F,
77,
1F,
61,
08,
4D,
3D,
9F,
C3,
DD,
ED,
54,
83,
36,
C4,
76,
8D,
BC,
0C,
DB,
DF,
CD,
47,
40,
FB,
C2,
8B,
17,
34,
7E,
47,
B4,
13,
1E,
55,
11,
31,
93,
76,
2C,
F7,
34,
0C,
BA,
71,
58,
64,
F6,
29,
42,
0E,
A9,
99,
70,
D4,
88,
88,
12,
F3,
64,
B3,
D5,
64,
5C,
DB,
55,
E4,
46,
69,
DF,
DE,
A9,
E2,
07,
71,
7C,
47,
60,
EA,
9C,
8C,
D1,
97,
FF,
65,
C5,
70,
AC,
4F,
37,
74,
AA,
94,
61,
21,
5E,
95,
97,
15,
00,
FB,
C7,
CB,
0A,
FF,
CD,
F7,
D0,
74,
A9,
11,
22,
42,
32,
04,
B9,
18,
7E,
22,
23,
2F,
9A,
AF,
8E,
E8,
A3,
64,
EB,
3D,
B3,
B4,
EF,
C4,
45,
8B,
07,
C1,
17,
C0,
EE,
A0,
6D,
3E,
8C,
59,
07,
2F,
8B,
0D,
BE,
11,
DB,
DC,
E7,
C2,
54,
81,
2E,
35,
D2,
1B,
75,
1E,
A8,
56,
86,
6D,
9E,
62,
FE,
52,
F3,
43,
83,
3A,
DC,
2A,
1B,
67,
5D,
73,
12,
50,
2A,
D8,
FE,
96,
87,
EA,
8D,
14,
9E,
7A,
5A,
AA,
18,
A7,
08,
F3,
EE,
BF,
C2,
EA,
4B,
83,
E8,
CD,
2C,
98,
AA,
9E,
98,
E2,
28,
6F,
3B,
B1,
68,
57,
5B,
3F,
59,
DC,
86,
B2,
E8,
60,
0B,
C9,
3E,
FC,
26,
82,
DE,
42,
6D,
7E,
88,
19,
34,
AE,
22,
1C,
F2,
2A,
52,
88,
0E,
6E,
2C,
96,
86,
BD,
11,
04,
C9,
33,
72,
B8,
A5,
91,
AB,
50,
0F,
E9,
40,
90,
84,
B1,
83,
3C,
A2,
FD,
47,
27,
64,
AF,
28,
9B,
5E,
A5,
FA,
57,
77,
36,
7F,
CC,
70,
CC,
96,
A0,
1D,
39,
FF,
6A,
FA,
A3,
1E,
C2,
C1,
08,
8F,
72,
C7,
20,
D2,
4F,
93,
91,
04,
BE,
A3,
D5,
D8,
E7,
D5,
CD,
2A,
B4,
C1,
0B,
A5,
E0,
1D,
29,
16,
9C,
B8,
7C,
23,
FB,
AB,
C5,
B3,
D7,
B9,
26,
9F,
9E,
40,
6F,
61,
BD,
15,
0E,
3F,
F1,
15,
08,
25,
84,
E2,
5C,
FE,
35,
EE,
17,
4A,
4B,
DE,
E6,
41,
F8,
A2,
04,
9A,
D0,
E5,
17,
51,
EA,
A4,
D4,
E1,
F7,
A1,
3F,
3E,
65,
9D,
28,
40,
4A,
8D,
97,
1B,
4D,
0D,
C2,
2E,
4D,
A5,
BC,
CC,
81,
A7,
1E,
B5,
47,
4E,
83,
59,
31,
6C,
83,
7A,
27,
B3,
E2,
09,
C3,
A3,
26,
F9,
06,
E1,
CD,
E5,
A5,
6F,
C8,
4A,
52,
1B,
DA,
62,
2A,
66,
4F,
EA,
8F,
7B,
BC,
B8,
A1,
07,
5D,
22,
85,
E2,
9D,
D6,
F6,
99,
B8,
68,
9C,
B5,
EE,
40,
B7,
D6,
B2,
45,
B7,
83,
01,
5D,
BC,
EB,
52,
D2,
46,
51,
A2,
C1,
AD,
01,
AA,
64,
D9,
9B,
F9,
63,
9D,
71,
7D,
AA,
8D,
0C,
3E,
58,
B2,
6A,
F1,
08,
FB,
F3,
D3,
5F,
96,
19,
A2,
32,
01,
94,
EA,
FF,
B3,
EB,
6E,
5A,
E9,
8E,
76,
F3,
84,
03,
DE,
87,
2B,
09,
59,
F1,
93,
AD,
09,
F1,
6D,
5F,
BF,
C3,
14,
33,
26,
19,
31,
7A,
AB,
77,
88,
90,
BE,
2D,
D6,
A9,
FE,
5E,
F9,
D9,
FE,
94,
CB,
D0,
5F,
93,
04,
87,
73,
06,
00,
5E,
10,
BA,
47,
3D,
03,
5A,
A0,
85,
DD,
33,
35,
CF,
03,
18,
01,
DC,
FD,
F8,
DB,
0D,
B8,
BF,
97,
E2,
03,
69,
17,
24,
19,
B4,
1B,
55,
E6,
0D,
2E,
A7,
17,
E7,
B1,
57,
BB,
79,
22,
3A,
28,
CF,
D4,
8E,
1D,
1F,
1B,
65,
8F,
A5,
1C,
0E,
7D,
7A,
7E,
08,
A4,
F6,
92,
10,
A3,
AA,
41,
54,
74,
9D,
87,
3E,
F8,
62,
C5,
0D,
F5,
0D,
64,
85,
A4,
FD,
0D,
11,
6C,
B2,
FE,
81,
DA,
14,
FD,
69,
D4,
61,
CB,
68,
D2,
22,
17,
45,
C6,
59,
53,
E3,
45,
38,
ED,
39,
6B,
DF,
2B,
2A,
CA,
FD,
26,
33,
A4,
A3,
F3,
95,
00,
05,
7A,
E6,
FA,
3E,
C0,
6C,
10,
EA,
7B,
8D,
27,
43,
47,
03,
27,
83,
C1,
83,
C5,
DF,
22,
2F,
AC,
02,
CF,
D6,
83,
70,
22,
37,
35,
63,
BB,
4C,
7B,
FC,
11,
66,
5D,
C2,
DE,
24,
9C,
8E,
20,
83,
4C,
82,
67,
7A,
03,
85,
A2,
E3,
A2,
5D,
05,
DB,
EF,
58,
86,
41,
A7,
9F,
73,
D3,
08,
B0,
2A,
BE,
DD,
D0,
B9,
48,
56,
05,
B2,
48,
63,
C2,
B0,
C4,
45,
6F,
8D,
E5,
FD,
40,
C7,
A6,
E7,
3D,
C2,
EB,
95,
F5,
FA,
ED,
8D,
1F,
6E,
F6,
64,
7E,
49,
95,
AD,
C0,
A6,
55,
3D,
7C,
26,
24,
96,
A7,
C5,
FB,
40,
01,
65,
95,
53,
28,
CA,
BF,
64,
BB,
B5,
D6,
35,
9A,
F8,
A7,
B6,
29,
B4,
2E,
EC,
67,
6B,
74,
FA,
AD,
A6,
6D,
EF,
71,
78,
F7,
FC,
49,
21,
51,
B8,
D5,
0F,
0F,
AD,
D3,
00,
08,
01,
A4,
73,
B4,
4C,
00,
85,
A8,
46,
B2,
D8,
16,
1D,
B9,
A9,
8A,
B3,
C9,
F6,
81,
09,
F5,
99,
72,
AF,
63,
97,
A7,
05,
1E,
35,
3E,
5E,
F7,
72,
72,
85,
C5,
4A,
F6,
05,
A7,
AE,
71,
F8,
A8,
E8,
12,
3C,
43,
86,
1C,
23,
3C,
BE,
59,
E8,
7A,
E8,
4B,
30,
4B,
CC,
D2,
62,
A5,
13,
26,
8E,
E1,
B3,
10,
B6,
9E,
DB,
8D,
45,
6F,
33,
23,
4A,
43,
F6,
73,
13,
15,
FD,
64,
13,
A6,
7D,
CB,
30,
D0,
72,
43,
06,
5C,
32,
56,
76,
62,
1F,
10,
8B,
FE,
F5,
6D,
AF,
5D,
85,
EC,
91,
75,
92,
22,
00,
01,
1A,
2B,
AF,
39,
E7,
BC,
B9,
CD,
6F,
03,
08,
0B,
07,
33,
03,
BE,
53,
CE,
52,
29,
B9,
D5,
F1,
77,
77,
EC,
A9,
8F,
FF,
B7,
5A,
1B,
04,
BE,
03,
2C,
78,
D3,
06,
82,
01,
AA,
FD,
19,
9E,
0F,
22,
AD,
78,
DB,
EE,
72,
0B,
C2,
AC,
5C,
A1,
D0,
27,
1B,
FD,
D6,
8E,
EC,
1F,
82,
39,
83,
90,
5C,
7C,
5D,
4D,
D3,
8A,
9F,
C8,
79,
4F,
BA,
71,
EF,
AD,
88,
64,
BA,
24,
DC,
E9,
96,
FF,
2E,
54,
85,
21,
70,
C6,
76,
A5,
3A,
A1,
E0,
19,
6C,
1D,
CC,
5F,
CE,
79,
68,
18,
48,
24,
4C,
08,
14,
EF,
BC,
7C,
8D,
DB,
43,
97,
A4,
F3,
87,
AE,
4C,
73,
97,
7A,
D6,
EE,
46,
DD,
B8,
EF,
DA,
C7,
62,
29,
06,
4E,
4F,
89,
91,
57,
36,
3E,
51,
1B,
CF,
45,
39,
96,
F1,
54,
92,
CD,
92,
38,
AA,
EE,
1E,
CA,
8C,
07,
CF,
A8,
79,
89,
12,
B1,
E2,
88,
C9,
78,
86,
61,
48,
0E,
D6,
FC,
9D,
72,
E8,
7A,
F2,
8A,
12,
F5,
C2,
AB,
A1,
E5,
B1,
FB,
83,
4B,
33,
38,
D8,
DA,
48,
7A,
40,
FC,
3A,
BE,
60,
AC,
62,
B1,
8E,
56,
5B,
4E,
BF,
D1,
71,
AF,
AF,
8F,
BA,
C9,
44,
34,
2E,
6A,
01,
B0,
4B,
69,
4F,
A3,
A9,
36,
67,
43,
71,
8B,
A7,
3C,
11,
B1,
C2,
F7,
1A,
1C,
4D,
B6,
04,
82,
E7,
54,
E7,
96,
DA,
B8,
5A,
CE,
CB,
CC,
45,
83,
86,
9E,
8F,
C3,
CC,
AD,
4D,
91,
FB,
B5,
97,
4F,
94,
35,
5D,
DD,
96,
15,
21,
86,
E3,
FF,
C2,
F5,
0D,
67,
3B,
73,
1A,
C3,
4D,
42,
D1,
24,
82,
81,
07,
C8,
1E,
E7,
A1,
95,
F3,
79,
48,
BB,
C7,
E9,
0A,
FB,
5C,
7A,
F5,
64,
5E,
23,
BE,
19,
B6,
DF,
C1,
E4,
6D,
06,
9D,
FC,
5C,
61,
C4,
0F,
EC,
FA,
26,
C1,
A6,
25,
62,
8C,
04,
46,
A5,
62,
E4,
08,
74,
22,
4B,
46,
EC,
AC,
C3,
BB,
66,
F3,
8B,
03,
7D,
38,
4C,
23,
EA,
13,
42,
96,
D0,
FD,
8E,
B7,
E4,
E3,
D8,
9F,
E2,
38,
5D,
4E,
C7,
FD,
61,
5A,
A3,
59,
6B,
9A,
13,
73,
9A,
3A,
0F,
00,
A6,
F0,
38,
BD,
07,
26,
B4,
B4,
2F,
76,
CB,
86,
43,
F3,
7E,
0B,
9C,
38,
7D,
95,
25,
66,
AB,
89,
68,
5E,
18,
DC,
23,
B5,
CA,
BA,
C5,
D5,
F1,
22,
2E,
ED,
E1,
8F,
DC,
75,
83,
8D,
51,
4F,
59,
03,
11,
3D,
AC,
BE,
22,
E3,
36,
CC,
F6,
74,
FB,
99,
D9,
38,
11,
FF,
53,
7A,
B9,
37,
AD,
4E,
9D,
FD,
30,
DD,
75,
E5,
93,
7C,
08,
AA,
76,
6C,
C1,
B3,
6B,
21,
07,
90,
8C,
E2,
24,
BC,
AD,
4F,
94,
46,
56,
C3,
AB,
B0,
09,
6A,
34,
1E,
61,
49,
69,
D4,
21,
17,
72,
68,
F3,
3B,
EF,
F1,
00,
A1,
57,
98,
AC,
D5,
6A,
53,
8B,
CF,
EB,
53,
B4,
7A,
50,
1E,
29,
82,
A8,
95,
E7,
74,
8C,
3E,
6A,
B8,
A4,
A3,
11,
17,
59,
BE,
90,
31,
2F,
32,
0C,
45,
2D,
93,
36,
23,
BD,
12,
7E,
B8,
11,
2E,
CB,
CE,
D9,
96,
A4,
0A,
78,
F5,
19,
B4,
13,
9B,
52,
B9,
AA,
39,
82,
49,
FA,
48,
CD,
00,
63,
08,
A0,
E6,
4C,
E7,
34,
7D,
FE,
C2,
9F,
15,
EB,
45,
3F,
82,
0B,
EC,
C8,
55,
87,
08,
41,
70,
42,
88,
45,
AC,
61,
43,
A9,
F3,
C6,
37,
6B,
8B,
33,
7B,
F9,
9C,
14,
30,
45,
5C,
9C,
D4,
30,
40,
95,
21,
EE,
BC,
50,
E5,
01,
0A,
1F,
5A,
88,
09,
0F,
FA,
4F,
48,
F9,
FD,
F8,
58,
56,
A7,
28,
77,
FC,
42,
38,
A8,
82,
05,
66,
DC,
CA,
1F,
4D,
C6,
40,
27,
43,
DB,
ED,
92,
D2,
07,
DC,
84,
59,
4C,
15,
C7,
21,
4B,
E7,
7C,
98,
25,
BB,
89,
77,
E9,
A5,
7F,
78,
21,
D7,
E8,
F9,
30,
13,
31,
16,
D4,
F5,
6B,
F3,
39,
D9,
F6,
1F,
BE,
D6,
5A,
2F,
67,
C8,
A6,
6D,
70,
3F,
2C,
F9,
B1,
C1,
BC,
36,
E5,
6F,
BC,
E4,
66,
F3,
C5,
E4,
BB,
18,
83,
A1,
BE,
57,
C6,
78,
FF,
B7,
E2,
C3,
AF,
6C,
E2,
AE,
61,
48,
BF,
F3,
75,
A2,
E4,
7E,
97,
6A,
11,
18,
F7,
A7,
94,
78,
B7,
84,
81,
70,
B3,
E6,
2F,
FD,
AD,
29,
D1,
18,
E1,
AB,
F3,
27,
BA,
AC,
FE,
E5,
2B,
72,
24,
8B,
10,
ED,
EB,
88,
07,
42,
CA,
8D,
94,
48,
39,
91,
2E,
96,
6D,
DC,
CF,
AF,
9D,
18,
F9,
C7,
37,
B7,
29,
C5,
A4,
B4,
C2,
74,
4A,
41,
E4,
02,
60,
ED,
23,
FE,
8F,
A0,
94,
40,
CC,
01,
59,
AB,
0E,
05,
86,
27,
F3,
7A,
09,
2D,
EE,
C1,
D8,
33,
92,
DA,
A8,
34,
9D,
23,
0F,
B8,
C8,
79,
62,
77,
09,
F9,
04,
45,
89,
40,
10,
4B,
5F,
BB,
8E,
74,
FA,
73,
7C,
9A,
DF,
AB,
13,
51,
CA,
BC,
52,
A0,
24,
EB,
E5,
BC,
F7,
71,
2F,
5B,
CF,
5A,
ED,
25,
71,
87,
5D,
41,
BC,
8B,
AF,
E8,
50,
8D,
C0,
0B,
2E,
B3,
54,
42,
D6,
8B,
98,
05,
A9,
2A,
E1,
68,
E8,
F1,
BE,
EC,
42,
13,
76,
C6,
18,
55,
9B,
76,
BC,
57,
55,
01,
DA,
EE,
A5,
32,
47,
00,
5C,
51,
FE,
98,
BD,
36,
A2,
8E,
B3,
11,
03,
83,
A5,
79,
49,
DE,
00,
B0,
24,
C1,
07,
3B,
6D,
8E,
30,
3A,
8D,
55,
4C,
D5,
8D,
37,
C1,
F9,
D6,
CA,
13,
9A,
4C,
D0,
0C,
89,
B8,
46,
09,
30,
3D,
CD,
75,
8B,
17,
42,
D3,
B1,
A7,
49,
60,
6D,
B3,
3D,
CE,
25,
DC,
51,
D6,
7B,
54,
ED,
CF,
AD,
2E,
D9,
1C,
09,
85,
1B,
C9,
CD,
6E,
F3,
CB,
BE,
CD,
3C,
79,
BD,
AA,
19,
68,
2F,
D6,
35,
5D,
4C,
76,
4E,
5B,
97,
89,
C3,
AF,
E6,
08,
44,
D8,
93,
11,
E7,
49,
1C,
3E,
D9,
C6,
5A,
B3,
54,
02,
52,
40,
0D,
FD,
8C,
71,
E2,
82,
7D,
92,
B6,
15,
37,
6B,
63,
CE,
17,
F7,
95,
DB,
04,
A1,
EA,
5B,
DB,
85,
D0,
BF,
29,
7A,
D4,
68,
14,
FE,
3E,
42,
39,
BB,
AA,
69,
59,
86,
54,
49,
36,
05,
2B,
45,
77,
0B,
94,
AB,
AB,
BE,
83,
D8,
A3,
06,
8E,
5E,
E3,
C3,
50,
79,
1E,
87,
53,
1D,
02,
A7,
B3,
B4,
F4,
C3,
30,
24,
57,
DC,
98,
5D,
9D,
22,
5C,
67,
8D,
C9,
B2,
FA,
9A,
F4,
5F,
8D,
39,
85,
67,
40,
AE,
A1,
81,
FF,
D5,
B2,
C8,
DB,
54,
AE,
E7,
ED,
64,
66,
57,
01,
78,
8F,
44,
AD,
49,
2C,
7B,
5F,
85,
CF,
F8,
3B,
54,
2D,
8B,
17,
79,
89,
0B,
4B,
45,
68,
21,
77,
78,
39,
8C,
91,
75,
FE,
FE,
04,
9C,
7E,
BE,
67,
4F,
08,
16,
09,
BF,
3A,
CD,
0B,
B6,
BC,
7D,
DD,
D3,
F5,
0F,
DA,
BE,
44,
89,
21,
2F,
F9,
0D,
3B,
B7,
36,
91,
41,
DC,
83,
74,
A7,
CB,
EE,
5B,
0E,
4F,
28,
1C,
66,
93,
65,
96,
BE,
00,
11,
B7,
16,
A6,
06,
76,
E3,
11,
56,
66,
F4,
65,
40,
F5,
7E,
66,
17,
68,
E1,
44,
E9,
2F,
6D,
E2,
51,
ED,
3B,
22,
E9,
A6,
FA,
33,
FF,
E5,
41,
D4,
B3,
4F,
56,
B4,
25,
DA,
D7,
52,
51,
EF,
DA,
6D,
62,
41,
35,
37,
EF,
37,
81,
A7,
C8,
E4,
47,
9D,
F8,
B8,
8E,
6C,
76,
E3,
F9,
0F,
DE,
9F,
FC,
5C,
4E,
09,
50,
5C,
CE,
17,
AF,
A3,
AA,
F5,
FE,
E8,
24,
F7,
F2,
EF,
5C,
59,
8C,
3D,
73,
87,
63,
5B,
7E,
3D,
04,
8D,
54,
9C,
42,
5E,
CB,
AB,
DF,
C8,
5A,
60,
BF,
6E,
C5,
A7,
12,
49,
BE,
F0,
A8,
04,
96,
CD,
EB,
AE,
50,
A6,
63,
F7,
66,
EC,
7E,
17,
D1,
B6,
01,
FE,
58,
43,
38,
56,
AF,
31,
19,
E2,
D8,
B7,
2E,
5C,
70,
29,
A4,
5E,
92,
8F,
4B,
FA,
07,
90,
0A,
49,
0A,
E8,
5B,
B8,
57,
59,
B3,
F8,
0D,
00,
4E,
EE,
58,
A5,
8C,
04,
BF,
42,
48,
50,
C5,
87,
00,
E3,
30,
33,
D6,
0B,
BC,
48,
AB,
71,
07,
DA,
74,
58,
FC,
2B,
E5,
C5,
58,
02,
19,
20,
2F,
59,
01,
32,
13,
58,
B5,
8B,
4C,
56,
F4,
4C,
D1,
13,
BD,
3D,
83,
BD,
09,
E8,
18,
55,
0C,
91,
20,
C1,
85,
33,
B5,
2F,
B9,
D6,
E0,
6B,
C8,
A8,
29,
90,
5E,
F1,
70,
B7,
55,
1B,
CB,
21,
42,
97,
5B,
22,
DF,
2C,
8C,
34,
2B,
44,
4C,
15,
46,
92,
3B,
DC,
22,
2D,
1B,
74,
E9,
3F,
F8,
2F,
19,
78,
32,
9F,
11,
BA,
5A,
B5,
98,
F7,
39,
C6,
51,
D1,
98,
83,
57,
AE,
E0,
E5,
76,
11,
3D,
3D,
0B,
8C,
6D,
ED,
4A,
8A,
73,
00,
FA,
DE,
8C,
B3,
00,
7C,
7D,
08,
8D,
7A,
BA,
10,
A6,
E3,
77,
53,
BF,
AB,
EE,
FC,
AA,
E8,
50,
5B,
1E,
78,
FA,
4E,
F8,
94,
38,
4D,
D4,
1C,
8C,
2D,
91,
40,
2B,
2A,
ED,
B3,
8D,
EF,
47,
1E,
4B,
8B,
2A,
84,
87,
FF,
85,
00,
31,
20,
A3,
09,
7B,
0D,
54,
5E,
06,
65,
C3,
9F,
F8,
DC,
C0,
5C,
44,
F8,
1C,
A1,
68,
BF,
4D,
74,
AB,
03,
3B,
B6,
44,
16,
3E,
2D,
37,
9D,
5E,
57,
B1,
71,
28,
DE,
CA,
4C,
31,
E5,
0C,
1A,
18,
FB,
19,
63,
20,
6A,
BC,
9B,
44,
69,
83,
9F,
F7,
E9,
73,
98,
36,
50,
14,
ED,
FC,
04,
A8,
C5,
B2,
3E,
4C,
89,
29,
B4,
6C,
61,
62,
9F,
7D,
54,
4A,
30,
72,
34,
86,
95,
A1,
5E,
DC,
72,
1D,
E4,
52,
B8,
46,
39,
53,
36,
63,
88,
91,
50,
F1,
B6,
B8,
CB,
3C,
B9,
9E,
A4,
FB,
3C,
F7,
6A,
F5,
1C,
21,
3F,
CF,
2E,
2B,
28,
1A,
3D,
D4,
37,
0E,
26,
B4,
57,
61,
20,
04,
11,
3F,
79,
AA,
5A,
D4,
E4,
D6,
29,
98,
8B,
79,
41,
C4,
7A,
0F,
D2,
B0,
1B,
01,
B5,
D4,
AD,
AF,
07,
A6,
B9,
09,
C9,
72,
3A,
7D,
37,
07,
D6,
F6,
43,
AA,
48,
F9,
4D,
AF,
AF,
65,
4A,
94,
35,
8D,
97,
D9,
D8,
44,
F8,
04,
8A,
6E,
45,
46,
92,
04,
CA,
21,
3C,
FF,
F0,
8D,
D2,
F2,
65,
10,
E7,
9D,
1F,
50,
4B,
97,
AC,
39,
F8,
17,
CF,
6A,
5B,
C3,
6B,
29,
FE,
51,
62,
C6,
1D,
3D,
47,
4C,
40,
7D,
65,
5A,
9C,
A4,
8F,
5E,
5B,
63,
13,
38,
0D,
0B,
CB,
1A,
15,
57,
1E,
3A,
7A,
67,
4B,
50,
34,
4D,
D2,
3D,
F8,
F1,
04,
89,
4E,
41,
EE,
D6,
F7,
35,
BD,
0B,
5D,
7B,
2A,
EE,
20,
75,
0D,
D7,
57,
C6,
F4,
0B,
85,
CE,
B3,
C0,
0F,
63,
67,
D6,
97,
09,
A2,
BA,
E1,
3C,
CE,
29,
F3,
5F,
CF,
C4,
3C,
7B,
6F,
14,
0C,
1C,
0D,
A3,
D8,
E3,
1D,
2D,
BF,
C5,
B0,
A3,
A2,
66,
E7,
E1,
4E,
5F,
11,
49,
8F,
04,
30,
A5,
1C,
EF,
46,
EF,
9E,
4A,
DD,
0F,
A5,
BB,
07,
A3,
9F,
3A,
CC,
CD,
28,
13,
D0,
B7,
92;